{
  "version": "1.0",
  "truncation": {
    "direction": "Right",
    "max_length": 1024,
    "strategy": "LongestFirst",
    "stride": 0
  },
  "padding": {
    "strategy": {
      "Fixed": 1024
    },
    "direction": "Right",
    "pad_to_multiple_of": null,
    "pad_id": 0,
    "pad_type_id": 0,
    "pad_token": "[PAD]"
  },
  "added_tokens": [
    {
      "id": 0,
      "content": "[PAD]",
      "single_word": false,
      "lstrip": false,
      "rstrip": false,
      "normalized": false,
      "special": true
    },
    {
      "id": 1,
      "content": "[UNK]",
      "single_word": false,
      "lstrip": false,
      "rstrip": false,
      "normalized": false,
      "special": true
    },
    {
      "id": 2,
      "content": "[CLS]",
      "single_word": false,
      "lstrip": false,
      "rstrip": false,
      "normalized": false,
      "special": true
    },
    {
      "id": 3,
      "content": "[SEP]",
      "single_word": false,
      "lstrip": false,
      "rstrip": false,
      "normalized": false,
      "special": true
    },
    {
      "id": 4,
      "content": "[MASK]",
      "single_word": false,
      "lstrip": false,
      "rstrip": false,
      "normalized": false,
      "special": true
    },
    {
      "id": 5,
      "content": "<s>",
      "single_word": false,
      "lstrip": false,
      "rstrip": false,
      "normalized": false,
      "special": true
    },
    {
      "id": 6,
      "content": "</s>",
      "single_word": false,
      "lstrip": false,
      "rstrip": false,
      "normalized": false,
      "special": true
    }
  ],
  "normalizer": {
    "type": "BertNormalizer",
    "clean_text": true,
    "handle_chinese_chars": true,
    "strip_accents": null,
    "lowercase": false
  },
  "pre_tokenizer": {
    "type": "BertPreTokenizer"
  },
  "post_processor": {
    "type": "TemplateProcessing",
    "single": [
      {
        "SpecialToken": {
          "id": "[CLS]",
          "type_id": 0
        }
      },
      {
        "Sequence": {
          "id": "A",
          "type_id": 0
        }
      },
      {
        "SpecialToken": {
          "id": "[SEP]",
          "type_id": 0
        }
      }
    ],
    "pair": [
      {
        "SpecialToken": {
          "id": "[CLS]",
          "type_id": 0
        }
      },
      {
        "Sequence": {
          "id": "A",
          "type_id": 0
        }
      },
      {
        "SpecialToken": {
          "id": "[SEP]",
          "type_id": 0
        }
      },
      {
        "Sequence": {
          "id": "B",
          "type_id": 1
        }
      },
      {
        "SpecialToken": {
          "id": "[SEP]",
          "type_id": 1
        }
      }
    ],
    "special_tokens": {
      "[CLS]": {
        "id": "[CLS]",
        "ids": [
          2
        ],
        "tokens": [
          "[CLS]"
        ]
      },
      "[SEP]": {
        "id": "[SEP]",
        "ids": [
          3
        ],
        "tokens": [
          "[SEP]"
        ]
      }
    }
  },
  "decoder": {
    "type": "WordPiece",
    "prefix": "##",
    "cleanup": true
  },
  "model": {
    "type": "WordPiece",
    "unk_token": "[UNK]",
    "continuing_subword_prefix": "##",
    "max_input_chars_per_word": 100,
    "vocab": {
      "[PAD]": 0,
      "[UNK]": 1,
      "[CLS]": 2,
      "[SEP]": 3,
      "[MASK]": 4,
      "<s>": 5,
      "</s>": 6,
      "[unused2]": 7,
      "[unused3]": 8,
      "[unused4]": 9,
      "[unused5]": 10,
      "[unused6]": 11,
      "[unused7]": 12,
      "[unused8]": 13,
      "[unused9]": 14,
      "[unused10]": 15,
      "[unused11]": 16,
      "[unused12]": 17,
      "[unused13]": 18,
      "[unused14]": 19,
      "[unused15]": 20,
      "[unused16]": 21,
      "[unused17]": 22,
      "[unused18]": 23,
      "[unused19]": 24,
      "[unused20]": 25,
      "[unused21]": 26,
      "[unused22]": 27,
      "[unused23]": 28,
      "[unused24]": 29,
      "[unused25]": 30,
      "[unused26]": 31,
      "[unused27]": 32,
      "[unused28]": 33,
      "[unused29]": 34,
      "[unused30]": 35,
      "[unused31]": 36,
      "[unused32]": 37,
      "[unused33]": 38,
      "[unused34]": 39,
      "[unused35]": 40,
      "[unused36]": 41,
      "[unused37]": 42,
      "[unused38]": 43,
      "[unused39]": 44,
      "[unused40]": 45,
      "[unused41]": 46,
      "[unused42]": 47,
      "[unused43]": 48,
      "[unused44]": 49,
      "[unused45]": 50,
      "[unused46]": 51,
      "[unused47]": 52,
      "[unused48]": 53,
      "[unused49]": 54,
      "[unused50]": 55,
      "[unused51]": 56,
      "[unused52]": 57,
      "[unused53]": 58,
      "[unused54]": 59,
      "[unused55]": 60,
      "[unused56]": 61,
      "[unused57]": 62,
      "[unused58]": 63,
      "[unused59]": 64,
      "[unused60]": 65,
      "[unused61]": 66,
      "[unused62]": 67,
      "[unused63]": 68,
      "[unused64]": 69,
      "[unused65]": 70,
      "[unused66]": 71,
      "[unused67]": 72,
      "[unused68]": 73,
      "[unused69]": 74,
      "[unused70]": 75,
      "[unused71]": 76,
      "[unused72]": 77,
      "[unused73]": 78,
      "[unused74]": 79,
      "[unused75]": 80,
      "[unused76]": 81,
      "[unused77]": 82,
      "[unused78]": 83,
      "[unused79]": 84,
      "[unused80]": 85,
      "[unused81]": 86,
      "[unused82]": 87,
      "[unused83]": 88,
      "[unused84]": 89,
      "[unused85]": 90,
      "[unused86]": 91,
      "[unused87]": 92,
      "[unused88]": 93,
      "[unused89]": 94,
      "[unused90]": 95,
      "[unused91]": 96,
      "[unused92]": 97,
      "[unused93]": 98,
      "[unused94]": 99,
      "[unused95]": 100,
      "[unused96]": 101,
      "[unused97]": 102,
      "[unused98]": 103,
      "[unused99]": 104,
      "[unused100]": 105,
      "[unused101]": 106,
      "[unused102]": 107,
      "[unused103]": 108,
      "[unused104]": 109,
      "[unused105]": 110,
      "[unused106]": 111,
      "[unused107]": 112,
      "[unused108]": 113,
      "[unused109]": 114,
      "[unused110]": 115,
      "[unused111]": 116,
      "[unused112]": 117,
      "[unused113]": 118,
      "[unused114]": 119,
      "[unused115]": 120,
      "[unused116]": 121,
      "[unused117]": 122,
      "[unused118]": 123,
      "[unused119]": 124,
      "[unused120]": 125,
      "[unused121]": 126,
      "[unused122]": 127,
      "[unused123]": 128,
      "[unused124]": 129,
      "[unused125]": 130,
      "[unused126]": 131,
      "[unused127]": 132,
      "[unused128]": 133,
      "[unused129]": 134,
      "[unused130]": 135,
      "[unused131]": 136,
      "[unused132]": 137,
      "[unused133]": 138,
      "[unused134]": 139,
      "[unused135]": 140,
      "[unused136]": 141,
      "[unused137]": 142,
      "[unused138]": 143,
      "[unused139]": 144,
      "[unused140]": 145,
      "[unused141]": 146,
      "[unused142]": 147,
      "[unused143]": 148,
      "[unused144]": 149,
      "[unused145]": 150,
      "[unused146]": 151,
      "[unused147]": 152,
      "[unused148]": 153,
      "[unused149]": 154,
      "[unused150]": 155,
      "[unused151]": 156,
      "[unused152]": 157,
      "[unused153]": 158,
      "[unused154]": 159,
      "[unused155]": 160,
      "[unused156]": 161,
      "[unused157]": 162,
      "[unused158]": 163,
      "[unused159]": 164,
      "[unused160]": 165,
      "[unused161]": 166,
      "[unused162]": 167,
      "[unused163]": 168,
      "[unused164]": 169,
      "[unused165]": 170,
      "[unused166]": 171,
      "[unused167]": 172,
      "[unused168]": 173,
      "[unused169]": 174,
      "[unused170]": 175,
      "[unused171]": 176,
      "[unused172]": 177,
      "[unused173]": 178,
      "[unused174]": 179,
      "[unused175]": 180,
      "[unused176]": 181,
      "[unused177]": 182,
      "[unused178]": 183,
      "[unused179]": 184,
      "[unused180]": 185,
      "[unused181]": 186,
      "[unused182]": 187,
      "[unused183]": 188,
      "[unused184]": 189,
      "[unused185]": 190,
      "[unused186]": 191,
      "[unused187]": 192,
      "[unused188]": 193,
      "[unused189]": 194,
      "[unused190]": 195,
      "[unused191]": 196,
      "[unused192]": 197,
      "[unused193]": 198,
      "[unused194]": 199,
      "[unused195]": 200,
      "[unused196]": 201,
      "[unused197]": 202,
      "[unused198]": 203,
      "[unused199]": 204,
      "[unused200]": 205,
      "[unused201]": 206,
      "[unused202]": 207,
      "[unused203]": 208,
      "[unused204]": 209,
      "[unused205]": 210,
      "[unused206]": 211,
      "[unused207]": 212,
      "[unused208]": 213,
      "[unused209]": 214,
      "[unused210]": 215,
      "[unused211]": 216,
      "[unused212]": 217,
      "[unused213]": 218,
      "[unused214]": 219,
      "[unused215]": 220,
      "[unused216]": 221,
      "[unused217]": 222,
      "[unused218]": 223,
      "[unused219]": 224,
      "[unused220]": 225,
      "[unused221]": 226,
      "[unused222]": 227,
      "[unused223]": 228,
      "[unused224]": 229,
      "[unused225]": 230,
      "[unused226]": 231,
      "[unused227]": 232,
      "[unused228]": 233,
      "[unused229]": 234,
      "[unused230]": 235,
      "[unused231]": 236,
      "[unused232]": 237,
      "[unused233]": 238,
      "[unused234]": 239,
      "[unused235]": 240,
      "[unused236]": 241,
      "[unused237]": 242,
      "[unused238]": 243,
      "[unused239]": 244,
      "[unused240]": 245,
      "[unused241]": 246,
      "[unused242]": 247,
      "[unused243]": 248,
      "[unused244]": 249,
      "[unused245]": 250,
      "[unused246]": 251,
      "[unused247]": 252,
      "[unused248]": 253,
      "[unused249]": 254,
      "[unused250]": 255,
      "[unused251]": 256,
      "[unused252]": 257,
      "[unused253]": 258,
      "[unused254]": 259,
      "[unused255]": 260,
      "[unused256]": 261,
      "[unused257]": 262,
      "[unused258]": 263,
      "[unused259]": 264,
      "[unused260]": 265,
      "[unused261]": 266,
      "[unused262]": 267,
      "[unused263]": 268,
      "[unused264]": 269,
      "[unused265]": 270,
      "[unused266]": 271,
      "[unused267]": 272,
      "[unused268]": 273,
      "[unused269]": 274,
      "[unused270]": 275,
      "[unused271]": 276,
      "[unused272]": 277,
      "[unused273]": 278,
      "[unused274]": 279,
      "[unused275]": 280,
      "[unused276]": 281,
      "[unused277]": 282,
      "[unused278]": 283,
      "[unused279]": 284,
      "[unused280]": 285,
      "[unused281]": 286,
      "[unused282]": 287,
      "[unused283]": 288,
      "[unused284]": 289,
      "[unused285]": 290,
      "[unused286]": 291,
      "[unused287]": 292,
      "[unused288]": 293,
      "[unused289]": 294,
      "[unused290]": 295,
      "[unused291]": 296,
      "[unused292]": 297,
      "[unused293]": 298,
      "[unused294]": 299,
      "[unused295]": 300,
      "[unused296]": 301,
      "[unused297]": 302,
      "[unused298]": 303,
      "[unused299]": 304,
      "[unused300]": 305,
      "[unused301]": 306,
      "[unused302]": 307,
      "[unused303]": 308,
      "[unused304]": 309,
      "[unused305]": 310,
      "[unused306]": 311,
      "[unused307]": 312,
      "[unused308]": 313,
      "[unused309]": 314,
      "[unused310]": 315,
      "[unused311]": 316,
      "[unused312]": 317,
      "[unused313]": 318,
      "[unused314]": 319,
      "[unused315]": 320,
      "[unused316]": 321,
      "[unused317]": 322,
      "[unused318]": 323,
      "[unused319]": 324,
      "[unused320]": 325,
      "[unused321]": 326,
      "[unused322]": 327,
      "[unused323]": 328,
      "[unused324]": 329,
      "[unused325]": 330,
      "[unused326]": 331,
      "[unused327]": 332,
      "[unused328]": 333,
      "[unused329]": 334,
      "[unused330]": 335,
      "[unused331]": 336,
      "[unused332]": 337,
      "[unused333]": 338,
      "[unused334]": 339,
      "[unused335]": 340,
      "[unused336]": 341,
      "[unused337]": 342,
      "[unused338]": 343,
      "[unused339]": 344,
      "[unused340]": 345,
      "[unused341]": 346,
      "[unused342]": 347,
      "[unused343]": 348,
      "[unused344]": 349,
      "[unused345]": 350,
      "[unused346]": 351,
      "[unused347]": 352,
      "[unused348]": 353,
      "[unused349]": 354,
      "[unused350]": 355,
      "[unused351]": 356,
      "[unused352]": 357,
      "[unused353]": 358,
      "[unused354]": 359,
      "[unused355]": 360,
      "[unused356]": 361,
      "[unused357]": 362,
      "[unused358]": 363,
      "[unused359]": 364,
      "[unused360]": 365,
      "[unused361]": 366,
      "[unused362]": 367,
      "[unused363]": 368,
      "[unused364]": 369,
      "[unused365]": 370,
      "[unused366]": 371,
      "[unused367]": 372,
      "[unused368]": 373,
      "[unused369]": 374,
      "[unused370]": 375,
      "[unused371]": 376,
      "[unused372]": 377,
      "[unused373]": 378,
      "[unused374]": 379,
      "[unused375]": 380,
      "[unused376]": 381,
      "[unused377]": 382,
      "[unused378]": 383,
      "[unused379]": 384,
      "[unused380]": 385,
      "[unused381]": 386,
      "[unused382]": 387,
      "[unused383]": 388,
      "[unused384]": 389,
      "[unused385]": 390,
      "[unused386]": 391,
      "[unused387]": 392,
      "[unused388]": 393,
      "[unused389]": 394,
      "[unused390]": 395,
      "[unused391]": 396,
      "[unused392]": 397,
      "[unused393]": 398,
      "[unused394]": 399,
      "[unused395]": 400,
      "[unused396]": 401,
      "[unused397]": 402,
      "[unused398]": 403,
      "[unused399]": 404,
      "[unused400]": 405,
      "[unused401]": 406,
      "[unused402]": 407,
      "[unused403]": 408,
      "[unused404]": 409,
      "[unused405]": 410,
      "[unused406]": 411,
      "[unused407]": 412,
      "[unused408]": 413,
      "[unused409]": 414,
      "[unused410]": 415,
      "[unused411]": 416,
      "[unused412]": 417,
      "[unused413]": 418,
      "[unused414]": 419,
      "[unused415]": 420,
      "[unused416]": 421,
      "[unused417]": 422,
      "[unused418]": 423,
      "[unused419]": 424,
      "[unused420]": 425,
      "[unused421]": 426,
      "[unused422]": 427,
      "[unused423]": 428,
      "[unused424]": 429,
      "[unused425]": 430,
      "[unused426]": 431,
      "[unused427]": 432,
      "[unused428]": 433,
      "[unused429]": 434,
      "[unused430]": 435,
      "[unused431]": 436,
      "[unused432]": 437,
      "[unused433]": 438,
      "[unused434]": 439,
      "[unused435]": 440,
      "[unused436]": 441,
      "[unused437]": 442,
      "[unused438]": 443,
      "[unused439]": 444,
      "[unused440]": 445,
      "[unused441]": 446,
      "[unused442]": 447,
      "[unused443]": 448,
      "[unused444]": 449,
      "[unused445]": 450,
      "[unused446]": 451,
      "[unused447]": 452,
      "[unused448]": 453,
      "[unused449]": 454,
      "[unused450]": 455,
      "[unused451]": 456,
      "[unused452]": 457,
      "[unused453]": 458,
      "[unused454]": 459,
      "[unused455]": 460,
      "[unused456]": 461,
      "[unused457]": 462,
      "[unused458]": 463,
      "[unused459]": 464,
      "[unused460]": 465,
      "[unused461]": 466,
      "[unused462]": 467,
      "[unused463]": 468,
      "[unused464]": 469,
      "[unused465]": 470,
      "[unused466]": 471,
      "[unused467]": 472,
      "[unused468]": 473,
      "[unused469]": 474,
      "[unused470]": 475,
      "[unused471]": 476,
      "[unused472]": 477,
      "[unused473]": 478,
      "[unused474]": 479,
      "[unused475]": 480,
      "[unused476]": 481,
      "[unused477]": 482,
      "[unused478]": 483,
      "[unused479]": 484,
      "[unused480]": 485,
      "[unused481]": 486,
      "[unused482]": 487,
      "[unused483]": 488,
      "[unused484]": 489,
      "[unused485]": 490,
      "[unused486]": 491,
      "[unused487]": 492,
      "[unused488]": 493,
      "[unused489]": 494,
      "[unused490]": 495,
      "[unused491]": 496,
      "[unused492]": 497,
      "[unused493]": 498,
      "[unused494]": 499,
      "[unused495]": 500,
      "[unused496]": 501,
      "[unused497]": 502,
      "[unused498]": 503,
      "[unused499]": 504,
      "!": 505,
      "\"": 506,
      "#": 507,
      "$": 508,
      "%": 509,
      "&": 510,
      "'": 511,
      "(": 512,
      ")": 513,
      "*": 514,
      "+": 515,
      ",": 516,
      "-": 517,
      ".": 518,
      "/": 519,
      "0": 520,
      "1": 521,
      "2": 522,
      "3": 523,
      "4": 524,
      "5": 525,
      "6": 526,
      "7": 527,
      "8": 528,
      "9": 529,
      ":": 530,
      ";": 531,
      "<": 532,
      "=": 533,
      ">": 534,
      "?": 535,
      "@": 536,
      "A": 537,
      "B": 538,
      "C": 539,
      "D": 540,
      "E": 541,
      "F": 542,
      "G": 543,
      "H": 544,
      "I": 545,
      "J": 546,
      "K": 547,
      "L": 548,
      "M": 549,
      "N": 550,
      "O": 551,
      "P": 552,
      "Q": 553,
      "R": 554,
      "S": 555,
      "T": 556,
      "U": 557,
      "V": 558,
      "W": 559,
      "X": 560,
      "Y": 561,
      "Z": 562,
      "[": 563,
      "\\": 564,
      "]": 565,
      "^": 566,
      "_": 567,
      "`": 568,
      "a": 569,
      "b": 570,
      "c": 571,
      "d": 572,
      "e": 573,
      "f": 574,
      "g": 575,
      "h": 576,
      "i": 577,
      "j": 578,
      "k": 579,
      "l": 580,
      "m": 581,
      "n": 582,
      "o": 583,
      "p": 584,
      "q": 585,
      "r": 586,
      "s": 587,
      "t": 588,
      "u": 589,
      "v": 590,
      "w": 591,
      "x": 592,
      "y": 593,
      "z": 594,
      "{": 595,
      "|": 596,
      "}": 597,
      "~": 598,
      "§": 599,
      "«": 600,
      "°": 601,
      "±": 602,
      "²": 603,
      "³": 604,
      "´": 605,
      "·": 606,
      "¹": 607,
      "»": 608,
      "½": 609,
      "É": 610,
      "×": 611,
      "à": 612,
      "á": 613,
      "â": 614,
      "ä": 615,
      "ç": 616,
      "è": 617,
      "é": 618,
      "í": 619,
      "ó": 620,
      "ö": 621,
      "÷": 622,
      "ü": 623,
      "ā": 624,
      "ī": 625,
      "ː": 626,
      "˘": 627,
      "˚": 628,
      "˝": 629,
      "́": 630,
      "̈": 631,
      "̣": 632,
      "̥": 633,
      "Δ": 634,
      "α": 635,
      "β": 636,
      "γ": 637,
      "δ": 638,
      "ε": 639,
      "η": 640,
      "θ": 641,
      "ι": 642,
      "κ": 643,
      "λ": 644,
      "μ": 645,
      "ν": 646,
      "ο": 647,
      "π": 648,
      "ρ": 649,
      "ς": 650,
      "σ": 651,
      "τ": 652,
      "ω": 653,
      "А": 654,
      "В": 655,
      "К": 656,
      "М": 657,
      "П": 658,
      "Р": 659,
      "С": 660,
      "а": 661,
      "б": 662,
      "в": 663,
      "г": 664,
      "д": 665,
      "е": 666,
      "ж": 667,
      "з": 668,
      "и": 669,
      "й": 670,
      "к": 671,
      "л": 672,
      "м": 673,
      "н": 674,
      "о": 675,
      "п": 676,
      "р": 677,
      "с": 678,
      "т": 679,
      "у": 680,
      "х": 681,
      "ц": 682,
      "ч": 683,
      "ш": 684,
      "ы": 685,
      "ь": 686,
      "я": 687,
      "ا": 688,
      "ل": 689,
      "و": 690,
      "ෆ": 691,
      "๑": 692,
      "ღ": 693,
      "ᄒ": 694,
      "ᆞ": 695,
      "ᆡ": 696,
      "–": 697,
      "—": 698,
      "―": 699,
      "‘": 700,
      "’": 701,
      "“": 702,
      "”": 703,
      "•": 704,
      "․": 705,
      "‥": 706,
      "…": 707,
      "‧": 708,
      "′": 709,
      "※": 710,
      "‼": 711,
      "₁": 712,
      "₂": 713,
      "₩": 714,
      "€": 715,
      "℃": 716,
      "ℓ": 717,
      "™": 718,
      "⅓": 719,
      "Ⅰ": 720,
      "Ⅱ": 721,
      "Ⅲ": 722,
      "Ⅳ": 723,
      "Ⅴ": 724,
      "Ⅵ": 725,
      "←": 726,
      "↑": 727,
      "→": 728,
      "↓": 729,
      "↔": 730,
      "⇒": 731,
      "−": 732,
      "∙": 733,
      "∼": 734,
      "≪": 735,
      "≫": 736,
      "⊙": 737,
      "⋅": 738,
      "①": 739,
      "②": 740,
      "③": 741,
      "④": 742,
      "⑤": 743,
      "⑥": 744,
      "⑦": 745,
      "⑧": 746,
      "⑨": 747,
      "⑩": 748,
      "⑪": 749,
      "⑫": 750,
      "⑴": 751,
      "⑵": 752,
      "⑶": 753,
      "⑷": 754,
      "ⓐ": 755,
      "ⓑ": 756,
      "ⓒ": 757,
      "─": 758,
      "━": 759,
      "│": 760,
      "┃": 761,
      "┌": 762,
      "└": 763,
      "├": 764,
      "┬": 765,
      "■": 766,
      "□": 767,
      "▣": 768,
      "▨": 769,
      "▪": 770,
      "▫": 771,
      "▲": 772,
      "△": 773,
      "▶": 774,
      "▷": 775,
      "▼": 776,
      "▽": 777,
      "◀": 778,
      "◆": 779,
      "◇": 780,
      "◈": 781,
      "○": 782,
      "◎": 783,
      "●": 784,
      "◡": 785,
      "★": 786,
      "☆": 787,
      "☎": 788,
      "☏": 789,
      "☕": 790,
      "☞": 791,
      "☺": 792,
      "♀": 793,
      "♂": 794,
      "♡": 795,
      "♣": 796,
      "♤": 797,
      "♥": 798,
      "♩": 799,
      "♪": 800,
      "♬": 801,
      "✅": 802,
      "✌": 803,
      "✔": 804,
      "✨": 805,
      "❗": 806,
      "❣": 807,
      "❤": 808,
      "➡": 809,
      "⠀": 810,
      "⭐": 811,
      "、": 812,
      "。": 813,
      "〃": 814,
      "〈": 815,
      "〉": 816,
      "《": 817,
      "》": 818,
      "「": 819,
      "」": 820,
      "『": 821,
      "』": 822,
      "【": 823,
      "】": 824,
      "〓": 825,
      "〔": 826,
      "〕": 827,
      "〜": 828,
      "〰": 829,
      "あ": 830,
      "い": 831,
      "う": 832,
      "え": 833,
      "お": 834,
      "か": 835,
      "が": 836,
      "き": 837,
      "く": 838,
      "け": 839,
      "こ": 840,
      "さ": 841,
      "し": 842,
      "す": 843,
      "た": 844,
      "だ": 845,
      "ち": 846,
      "っ": 847,
      "つ": 848,
      "て": 849,
      "で": 850,
      "と": 851,
      "な": 852,
      "に": 853,
      "ぬ": 854,
      "の": 855,
      "は": 856,
      "ま": 857,
      "み": 858,
      "も": 859,
      "や": 860,
      "よ": 861,
      "ら": 862,
      "り": 863,
      "る": 864,
      "れ": 865,
      "わ": 866,
      "を": 867,
      "ん": 868,
      "ア": 869,
      "ィ": 870,
      "イ": 871,
      "カ": 872,
      "キ": 873,
      "ク": 874,
      "グ": 875,
      "コ": 876,
      "シ": 877,
      "ジ": 878,
      "ス": 879,
      "タ": 880,
      "チ": 881,
      "ッ": 882,
      "テ": 883,
      "ト": 884,
      "ド": 885,
      "ニ": 886,
      "ノ": 887,
      "フ": 888,
      "ブ": 889,
      "ポ": 890,
      "マ": 891,
      "ム": 892,
      "メ": 893,
      "ラ": 894,
      "リ": 895,
      "ル": 896,
      "レ": 897,
      "ロ": 898,
      "ン": 899,
      "・": 900,
      "ー": 901,
      "ㄱ": 902,
      "ㄲ": 903,
      "ㄴ": 904,
      "ㄷ": 905,
      "ㄹ": 906,
      "ㅁ": 907,
      "ㅂ": 908,
      "ㅃ": 909,
      "ㅅ": 910,
      "ㅆ": 911,
      "ㅇ": 912,
      "ㅈ": 913,
      "ㅉ": 914,
      "ㅊ": 915,
      "ㅋ": 916,
      "ㅌ": 917,
      "ㅍ": 918,
      "ㅎ": 919,
      "ㅏ": 920,
      "ㅐ": 921,
      "ㅑ": 922,
      "ㅓ": 923,
      "ㅔ": 924,
      "ㅕ": 925,
      "ㅗ": 926,
      "ㅛ": 927,
      "ㅜ": 928,
      "ㅠ": 929,
      "ㅡ": 930,
      "ㅣ": 931,
      "ㅤ": 932,
      "ㆍ": 933,
      "㈎": 934,
      "㈏": 935,
      "㈐": 936,
      "㈑": 937,
      "㈔": 938,
      "㈜": 939,
      "㉠": 940,
      "㉡": 941,
      "㉢": 942,
      "㉣": 943,
      "㉮": 944,
      "㉯": 945,
      "㉰": 946,
      "㎉": 947,
      "㎍": 948,
      "㎎": 949,
      "㎏": 950,
      "㎒": 951,
      "㎓": 952,
      "㎖": 953,
      "㎛": 954,
      "㎜": 955,
      "㎝": 956,
      "㎞": 957,
      "㎡": 958,
      "㎢": 959,
      "㎥": 960,
      "㎾": 961,
      "㎿": 962,
      "㏄": 963,
      "㏈": 964,
      "㏊": 965,
      "一": 966,
      "丁": 967,
      "七": 968,
      "丈": 969,
      "三": 970,
      "上": 971,
      "下": 972,
      "不": 973,
      "丑": 974,
      "且": 975,
      "世": 976,
      "丘": 977,
      "丙": 978,
      "丞": 979,
      "中": 980,
      "丸": 981,
      "丹": 982,
      "主": 983,
      "乃": 984,
      "久": 985,
      "之": 986,
      "乎": 987,
      "乘": 988,
      "乙": 989,
      "九": 990,
      "也": 991,
      "乳": 992,
      "乾": 993,
      "亂": 994,
      "了": 995,
      "事": 996,
      "二": 997,
      "于": 998,
      "云": 999,
      "互": 1000,
      "五": 1001,
      "井": 1002,
      "亞": 1003,
      "亡": 1004,
      "交": 1005,
      "亥": 1006,
      "亦": 1007,
      "亨": 1008,
      "享": 1009,
      "京": 1010,
      "亭": 1011,
      "亮": 1012,
      "人": 1013,
      "仁": 1014,
      "今": 1015,
      "介": 1016,
      "仕": 1017,
      "他": 1018,
      "付": 1019,
      "仙": 1020,
      "代": 1021,
      "令": 1022,
      "以": 1023,
      "仰": 1024,
      "仲": 1025,
      "件": 1026,
      "任": 1027,
      "企": 1028,
      "伊": 1029,
      "伏": 1030,
      "伐": 1031,
      "休": 1032,
      "会": 1033,
      "伯": 1034,
      "似": 1035,
      "伽": 1036,
      "但": 1037,
      "位": 1038,
      "低": 1039,
      "住": 1040,
      "佐": 1041,
      "何": 1042,
      "余": 1043,
      "佛": 1044,
      "作": 1045,
      "佳": 1046,
      "使": 1047,
      "來": 1048,
      "例": 1049,
      "侍": 1050,
      "供": 1051,
      "依": 1052,
      "侯": 1053,
      "侵": 1054,
      "便": 1055,
      "係": 1056,
      "俊": 1057,
      "俗": 1058,
      "保": 1059,
      "信": 1060,
      "修": 1061,
      "俱": 1062,
      "倂": 1063,
      "倉": 1064,
      "個": 1065,
      "倍": 1066,
      "倒": 1067,
      "候": 1068,
      "借": 1069,
      "値": 1070,
      "倫": 1071,
      "倭": 1072,
      "假": 1073,
      "偉": 1074,
      "偏": 1075,
      "停": 1076,
      "健": 1077,
      "傅": 1078,
      "備": 1079,
      "傳": 1080,
      "債": 1081,
      "傷": 1082,
      "僉": 1083,
      "像": 1084,
      "僕": 1085,
      "僞": 1086,
      "僧": 1087,
      "價": 1088,
      "儀": 1089,
      "儒": 1090,
      "償": 1091,
      "優": 1092,
      "允": 1093,
      "元": 1094,
      "兄": 1095,
      "充": 1096,
      "兆": 1097,
      "先": 1098,
      "光": 1099,
      "克": 1100,
      "免": 1101,
      "兒": 1102,
      "入": 1103,
      "內": 1104,
      "全": 1105,
      "兩": 1106,
      "兪": 1107,
      "八": 1108,
      "公": 1109,
      "六": 1110,
      "共": 1111,
      "兵": 1112,
      "其": 1113,
      "具": 1114,
      "典": 1115,
      "兼": 1116,
      "内": 1117,
      "冊": 1118,
      "再": 1119,
      "冠": 1120,
      "冬": 1121,
      "凉": 1122,
      "凡": 1123,
      "凶": 1124,
      "出": 1125,
      "刀": 1126,
      "分": 1127,
      "切": 1128,
      "刊": 1129,
      "刑": 1130,
      "列": 1131,
      "初": 1132,
      "判": 1133,
      "別": 1134,
      "利": 1135,
      "到": 1136,
      "制": 1137,
      "券": 1138,
      "刺": 1139,
      "刻": 1140,
      "則": 1141,
      "前": 1142,
      "剛": 1143,
      "副": 1144,
      "割": 1145,
      "創": 1146,
      "劃": 1147,
      "劇": 1148,
      "劉": 1149,
      "劍": 1150,
      "力": 1151,
      "功": 1152,
      "加": 1153,
      "助": 1154,
      "勇": 1155,
      "勒": 1156,
      "動": 1157,
      "務": 1158,
      "勝": 1159,
      "勞": 1160,
      "勢": 1161,
      "勤": 1162,
      "勳": 1163,
      "勸": 1164,
      "勿": 1165,
      "包": 1166,
      "化": 1167,
      "北": 1168,
      "匠": 1169,
      "匡": 1170,
      "區": 1171,
      "十": 1172,
      "千": 1173,
      "升": 1174,
      "午": 1175,
      "半": 1176,
      "卑": 1177,
      "卒": 1178,
      "卓": 1179,
      "協": 1180,
      "南": 1181,
      "博": 1182,
      "卜": 1183,
      "卞": 1184,
      "占": 1185,
      "卦": 1186,
      "卯": 1187,
      "印": 1188,
      "危": 1189,
      "却": 1190,
      "卷": 1191,
      "卽": 1192,
      "卿": 1193,
      "厚": 1194,
      "原": 1195,
      "去": 1196,
      "參": 1197,
      "又": 1198,
      "及": 1199,
      "友": 1200,
      "反": 1201,
      "叔": 1202,
      "取": 1203,
      "受": 1204,
      "叢": 1205,
      "口": 1206,
      "古": 1207,
      "句": 1208,
      "只": 1209,
      "召": 1210,
      "可": 1211,
      "台": 1212,
      "史": 1213,
      "右": 1214,
      "司": 1215,
      "各": 1216,
      "合": 1217,
      "吉": 1218,
      "同": 1219,
      "名": 1220,
      "后": 1221,
      "吏": 1222,
      "向": 1223,
      "君": 1224,
      "否": 1225,
      "含": 1226,
      "吳": 1227,
      "吾": 1228,
      "呂": 1229,
      "告": 1230,
      "周": 1231,
      "味": 1232,
      "呼": 1233,
      "命": 1234,
      "和": 1235,
      "咸": 1236,
      "哀": 1237,
      "品": 1238,
      "哉": 1239,
      "員": 1240,
      "哲": 1241,
      "唐": 1242,
      "唯": 1243,
      "唱": 1244,
      "商": 1245,
      "問": 1246,
      "啓": 1247,
      "善": 1248,
      "喜": 1249,
      "喪": 1250,
      "單": 1251,
      "嘉": 1252,
      "嘗": 1253,
      "器": 1254,
      "嚴": 1255,
      "四": 1256,
      "回": 1257,
      "因": 1258,
      "固": 1259,
      "国": 1260,
      "圈": 1261,
      "國": 1262,
      "圍": 1263,
      "園": 1264,
      "圓": 1265,
      "圖": 1266,
      "團": 1267,
      "土": 1268,
      "在": 1269,
      "圭": 1270,
      "地": 1271,
      "址": 1272,
      "坂": 1273,
      "均": 1274,
      "坊": 1275,
      "坐": 1276,
      "坡": 1277,
      "坤": 1278,
      "坪": 1279,
      "型": 1280,
      "城": 1281,
      "域": 1282,
      "執": 1283,
      "基": 1284,
      "堂": 1285,
      "堅": 1286,
      "堯": 1287,
      "報": 1288,
      "場": 1289,
      "塔": 1290,
      "塚": 1291,
      "塵": 1292,
      "境": 1293,
      "墓": 1294,
      "增": 1295,
      "墨": 1296,
      "墳": 1297,
      "壁": 1298,
      "壇": 1299,
      "壓": 1300,
      "壤": 1301,
      "士": 1302,
      "壬": 1303,
      "壯": 1304,
      "壽": 1305,
      "夏": 1306,
      "夕": 1307,
      "外": 1308,
      "多": 1309,
      "夜": 1310,
      "夢": 1311,
      "大": 1312,
      "天": 1313,
      "太": 1314,
      "夫": 1315,
      "央": 1316,
      "失": 1317,
      "夷": 1318,
      "奇": 1319,
      "奈": 1320,
      "奉": 1321,
      "奎": 1322,
      "奏": 1323,
      "契": 1324,
      "女": 1325,
      "奴": 1326,
      "好": 1327,
      "如": 1328,
      "妃": 1329,
      "妄": 1330,
      "妓": 1331,
      "妙": 1332,
      "妻": 1333,
      "始": 1334,
      "姓": 1335,
      "委": 1336,
      "姜": 1337,
      "姬": 1338,
      "威": 1339,
      "婚": 1340,
      "婢": 1341,
      "婦": 1342,
      "子": 1343,
      "孔": 1344,
      "字": 1345,
      "存": 1346,
      "孝": 1347,
      "孟": 1348,
      "季": 1349,
      "孤": 1350,
      "学": 1351,
      "孫": 1352,
      "學": 1353,
      "宅": 1354,
      "宇": 1355,
      "守": 1356,
      "安": 1357,
      "宋": 1358,
      "完": 1359,
      "宗": 1360,
      "官": 1361,
      "宙": 1362,
      "定": 1363,
      "宜": 1364,
      "客": 1365,
      "宣": 1366,
      "室": 1367,
      "宮": 1368,
      "宰": 1369,
      "害": 1370,
      "宴": 1371,
      "家": 1372,
      "容": 1373,
      "宿": 1374,
      "寂": 1375,
      "寄": 1376,
      "寅": 1377,
      "密": 1378,
      "富": 1379,
      "寒": 1380,
      "察": 1381,
      "寡": 1382,
      "實": 1383,
      "寧": 1384,
      "審": 1385,
      "寫": 1386,
      "寬": 1387,
      "寶": 1388,
      "寺": 1389,
      "封": 1390,
      "射": 1391,
      "將": 1392,
      "專": 1393,
      "尉": 1394,
      "尊": 1395,
      "尋": 1396,
      "對": 1397,
      "導": 1398,
      "小": 1399,
      "少": 1400,
      "尙": 1401,
      "就": 1402,
      "尹": 1403,
      "尺": 1404,
      "尼": 1405,
      "尾": 1406,
      "局": 1407,
      "居": 1408,
      "屈": 1409,
      "屋": 1410,
      "展": 1411,
      "層": 1412,
      "履": 1413,
      "屬": 1414,
      "山": 1415,
      "岐": 1416,
      "岡": 1417,
      "岩": 1418,
      "岳": 1419,
      "岸": 1420,
      "峯": 1421,
      "峰": 1422,
      "峴": 1423,
      "島": 1424,
      "崇": 1425,
      "崎": 1426,
      "崔": 1427,
      "嶺": 1428,
      "巖": 1429,
      "川": 1430,
      "州": 1431,
      "巡": 1432,
      "工": 1433,
      "左": 1434,
      "巨": 1435,
      "巫": 1436,
      "差": 1437,
      "己": 1438,
      "已": 1439,
      "巳": 1440,
      "巴": 1441,
      "市": 1442,
      "布": 1443,
      "希": 1444,
      "帖": 1445,
      "帝": 1446,
      "帥": 1447,
      "師": 1448,
      "席": 1449,
      "帶": 1450,
      "常": 1451,
      "幕": 1452,
      "干": 1453,
      "平": 1454,
      "年": 1455,
      "幸": 1456,
      "幹": 1457,
      "幻": 1458,
      "幼": 1459,
      "幽": 1460,
      "幾": 1461,
      "床": 1462,
      "序": 1463,
      "底": 1464,
      "店": 1465,
      "庚": 1466,
      "府": 1467,
      "度": 1468,
      "座": 1469,
      "庫": 1470,
      "庭": 1471,
      "庵": 1472,
      "庶": 1473,
      "康": 1474,
      "庸": 1475,
      "廉": 1476,
      "廟": 1477,
      "廢": 1478,
      "廣": 1479,
      "廳": 1480,
      "延": 1481,
      "廷": 1482,
      "建": 1483,
      "式": 1484,
      "弓": 1485,
      "弔": 1486,
      "引": 1487,
      "弗": 1488,
      "弘": 1489,
      "弟": 1490,
      "弱": 1491,
      "張": 1492,
      "强": 1493,
      "弼": 1494,
      "彈": 1495,
      "彌": 1496,
      "形": 1497,
      "彦": 1498,
      "彩": 1499,
      "彭": 1500,
      "影": 1501,
      "役": 1502,
      "彼": 1503,
      "往": 1504,
      "征": 1505,
      "待": 1506,
      "律": 1507,
      "後": 1508,
      "徐": 1509,
      "徒": 1510,
      "得": 1511,
      "從": 1512,
      "御": 1513,
      "復": 1514,
      "微": 1515,
      "徵": 1516,
      "德": 1517,
      "徽": 1518,
      "心": 1519,
      "必": 1520,
      "忌": 1521,
      "忍": 1522,
      "志": 1523,
      "忘": 1524,
      "忠": 1525,
      "念": 1526,
      "忽": 1527,
      "怒": 1528,
      "思": 1529,
      "急": 1530,
      "性": 1531,
      "怨": 1532,
      "怪": 1533,
      "恐": 1534,
      "恒": 1535,
      "恨": 1536,
      "恩": 1537,
      "恭": 1538,
      "息": 1539,
      "悅": 1540,
      "悟": 1541,
      "患": 1542,
      "悲": 1543,
      "情": 1544,
      "惑": 1545,
      "惟": 1546,
      "惠": 1547,
      "惡": 1548,
      "惱": 1549,
      "想": 1550,
      "意": 1551,
      "愚": 1552,
      "愛": 1553,
      "感": 1554,
      "愼": 1555,
      "慈": 1556,
      "態": 1557,
      "慕": 1558,
      "慧": 1559,
      "慮": 1560,
      "慶": 1561,
      "慾": 1562,
      "憂": 1563,
      "憲": 1564,
      "應": 1565,
      "懷": 1566,
      "懿": 1567,
      "戊": 1568,
      "戌": 1569,
      "成": 1570,
      "我": 1571,
      "戒": 1572,
      "或": 1573,
      "戦": 1574,
      "戰": 1575,
      "戱": 1576,
      "戴": 1577,
      "戶": 1578,
      "房": 1579,
      "所": 1580,
      "手": 1581,
      "才": 1582,
      "打": 1583,
      "扶": 1584,
      "批": 1585,
      "承": 1586,
      "技": 1587,
      "投": 1588,
      "抗": 1589,
      "折": 1590,
      "招": 1591,
      "拜": 1592,
      "持": 1593,
      "指": 1594,
      "振": 1595,
      "授": 1596,
      "掌": 1597,
      "排": 1598,
      "探": 1599,
      "接": 1600,
      "推": 1601,
      "提": 1602,
      "揚": 1603,
      "換": 1604,
      "援": 1605,
      "損": 1606,
      "摠": 1607,
      "摩": 1608,
      "撫": 1609,
      "播": 1610,
      "撰": 1611,
      "擇": 1612,
      "擊": 1613,
      "操": 1614,
      "擔": 1615,
      "據": 1616,
      "擧": 1617,
      "擬": 1618,
      "攝": 1619,
      "支": 1620,
      "收": 1621,
      "改": 1622,
      "攻": 1623,
      "放": 1624,
      "政": 1625,
      "故": 1626,
      "效": 1627,
      "敍": 1628,
      "敎": 1629,
      "敏": 1630,
      "救": 1631,
      "敗": 1632,
      "敢": 1633,
      "散": 1634,
      "敦": 1635,
      "敬": 1636,
      "整": 1637,
      "敵": 1638,
      "數": 1639,
      "文": 1640,
      "斗": 1641,
      "料": 1642,
      "斥": 1643,
      "斯": 1644,
      "新": 1645,
      "斷": 1646,
      "方": 1647,
      "於": 1648,
      "施": 1649,
      "旅": 1650,
      "旌": 1651,
      "族": 1652,
      "旗": 1653,
      "旣": 1654,
      "日": 1655,
      "旨": 1656,
      "早": 1657,
      "昇": 1658,
      "昌": 1659,
      "明": 1660,
      "易": 1661,
      "星": 1662,
      "映": 1663,
      "春": 1664,
      "昭": 1665,
      "是": 1666,
      "時": 1667,
      "晉": 1668,
      "晋": 1669,
      "晩": 1670,
      "普": 1671,
      "景": 1672,
      "智": 1673,
      "暗": 1674,
      "暴": 1675,
      "曆": 1676,
      "曉": 1677,
      "曰": 1678,
      "曲": 1679,
      "更": 1680,
      "書": 1681,
      "曹": 1682,
      "曺": 1683,
      "曾": 1684,
      "最": 1685,
      "會": 1686,
      "月": 1687,
      "有": 1688,
      "朋": 1689,
      "服": 1690,
      "朔": 1691,
      "望": 1692,
      "朝": 1693,
      "期": 1694,
      "木": 1695,
      "未": 1696,
      "末": 1697,
      "本": 1698,
      "朱": 1699,
      "朴": 1700,
      "李": 1701,
      "材": 1702,
      "村": 1703,
      "杖": 1704,
      "杜": 1705,
      "束": 1706,
      "東": 1707,
      "松": 1708,
      "板": 1709,
      "林": 1710,
      "果": 1711,
      "枝": 1712,
      "某": 1713,
      "染": 1714,
      "柔": 1715,
      "柱": 1716,
      "柳": 1717,
      "査": 1718,
      "校": 1719,
      "株": 1720,
      "核": 1721,
      "根": 1722,
      "格": 1723,
      "桂": 1724,
      "桃": 1725,
      "案": 1726,
      "桑": 1727,
      "桓": 1728,
      "梁": 1729,
      "梅": 1730,
      "條": 1731,
      "梵": 1732,
      "棄": 1733,
      "森": 1734,
      "植": 1735,
      "楊": 1736,
      "楚": 1737,
      "業": 1738,
      "極": 1739,
      "榮": 1740,
      "構": 1741,
      "槪": 1742,
      "樂": 1743,
      "樓": 1744,
      "標": 1745,
      "樞": 1746,
      "模": 1747,
      "樣": 1748,
      "樹": 1749,
      "橋": 1750,
      "機": 1751,
      "橫": 1752,
      "檀": 1753,
      "檢": 1754,
      "權": 1755,
      "次": 1756,
      "欲": 1757,
      "欽": 1758,
      "款": 1759,
      "歌": 1760,
      "歐": 1761,
      "止": 1762,
      "正": 1763,
      "此": 1764,
      "步": 1765,
      "武": 1766,
      "歲": 1767,
      "歷": 1768,
      "歸": 1769,
      "死": 1770,
      "殊": 1771,
      "殘": 1772,
      "段": 1773,
      "殷": 1774,
      "殺": 1775,
      "殿": 1776,
      "毅": 1777,
      "母": 1778,
      "每": 1779,
      "毒": 1780,
      "比": 1781,
      "毛": 1782,
      "氏": 1783,
      "民": 1784,
      "氣": 1785,
      "水": 1786,
      "氷": 1787,
      "永": 1788,
      "求": 1789,
      "汗": 1790,
      "汝": 1791,
      "江": 1792,
      "池": 1793,
      "決": 1794,
      "沈": 1795,
      "沒": 1796,
      "沙": 1797,
      "河": 1798,
      "油": 1799,
      "治": 1800,
      "況": 1801,
      "泉": 1802,
      "法": 1803,
      "波": 1804,
      "注": 1805,
      "泰": 1806,
      "泳": 1807,
      "洋": 1808,
      "洗": 1809,
      "洙": 1810,
      "洛": 1811,
      "洞": 1812,
      "津": 1813,
      "洪": 1814,
      "洲": 1815,
      "活": 1816,
      "派": 1817,
      "流": 1818,
      "浙": 1819,
      "浦": 1820,
      "浩": 1821,
      "浪": 1822,
      "浮": 1823,
      "海": 1824,
      "消": 1825,
      "涉": 1826,
      "淑": 1827,
      "淡": 1828,
      "淨": 1829,
      "淫": 1830,
      "淮": 1831,
      "深": 1832,
      "淳": 1833,
      "淵": 1834,
      "混": 1835,
      "淸": 1836,
      "清": 1837,
      "減": 1838,
      "渡": 1839,
      "測": 1840,
      "港": 1841,
      "湖": 1842,
      "湯": 1843,
      "源": 1844,
      "準": 1845,
      "溪": 1846,
      "溫": 1847,
      "滅": 1848,
      "滿": 1849,
      "漁": 1850,
      "漏": 1851,
      "演": 1852,
      "漢": 1853,
      "漸": 1854,
      "潛": 1855,
      "潤": 1856,
      "潭": 1857,
      "潮": 1858,
      "澤": 1859,
      "濟": 1860,
      "濤": 1861,
      "灣": 1862,
      "火": 1863,
      "災": 1864,
      "炎": 1865,
      "炳": 1866,
      "烈": 1867,
      "烏": 1868,
      "焉": 1869,
      "無": 1870,
      "然": 1871,
      "煙": 1872,
      "煥": 1873,
      "照": 1874,
      "煩": 1875,
      "熊": 1876,
      "熙": 1877,
      "熟": 1878,
      "熱": 1879,
      "燈": 1880,
      "燕": 1881,
      "營": 1882,
      "燮": 1883,
      "爭": 1884,
      "爲": 1885,
      "爵": 1886,
      "父": 1887,
      "爾": 1888,
      "片": 1889,
      "版": 1890,
      "牙": 1891,
      "牛": 1892,
      "牧": 1893,
      "物": 1894,
      "特": 1895,
      "犬": 1896,
      "犯": 1897,
      "狀": 1898,
      "狂": 1899,
      "狗": 1900,
      "猶": 1901,
      "獄": 1902,
      "獨": 1903,
      "獸": 1904,
      "獻": 1905,
      "玄": 1906,
      "率": 1907,
      "玉": 1908,
      "王": 1909,
      "珍": 1910,
      "珠": 1911,
      "班": 1912,
      "現": 1913,
      "球": 1914,
      "理": 1915,
      "琴": 1916,
      "瑞": 1917,
      "環": 1918,
      "甘": 1919,
      "甚": 1920,
      "生": 1921,
      "産": 1922,
      "用": 1923,
      "甫": 1924,
      "田": 1925,
      "由": 1926,
      "甲": 1927,
      "申": 1928,
      "男": 1929,
      "町": 1930,
      "界": 1931,
      "留": 1932,
      "略": 1933,
      "番": 1934,
      "異": 1935,
      "畵": 1936,
      "當": 1937,
      "畿": 1938,
      "疏": 1939,
      "疑": 1940,
      "疾": 1941,
      "病": 1942,
      "症": 1943,
      "痛": 1944,
      "癸": 1945,
      "登": 1946,
      "發": 1947,
      "白": 1948,
      "百": 1949,
      "的": 1950,
      "皆": 1951,
      "皇": 1952,
      "皮": 1953,
      "益": 1954,
      "盛": 1955,
      "盜": 1956,
      "盟": 1957,
      "盡": 1958,
      "監": 1959,
      "盤": 1960,
      "盧": 1961,
      "目": 1962,
      "直": 1963,
      "相": 1964,
      "省": 1965,
      "看": 1966,
      "眞": 1967,
      "眠": 1968,
      "眼": 1969,
      "着": 1970,
      "督": 1971,
      "矣": 1972,
      "知": 1973,
      "短": 1974,
      "石": 1975,
      "砂": 1976,
      "砲": 1977,
      "破": 1978,
      "硏": 1979,
      "碑": 1980,
      "碧": 1981,
      "碩": 1982,
      "確": 1983,
      "磁": 1984,
      "磨": 1985,
      "示": 1986,
      "社": 1987,
      "祀": 1988,
      "祐": 1989,
      "祖": 1990,
      "祝": 1991,
      "神": 1992,
      "祠": 1993,
      "祥": 1994,
      "票": 1995,
      "祭": 1996,
      "祿": 1997,
      "禁": 1998,
      "禍": 1999,
      "福": 2000,
      "禪": 2001,
      "禮": 2002,
      "禹": 2003,
      "秀": 2004,
      "私": 2005,
      "秉": 2006,
      "秋": 2007,
      "科": 2008,
      "秘": 2009,
      "租": 2010,
      "秦": 2011,
      "秩": 2012,
      "移": 2013,
      "稅": 2014,
      "程": 2015,
      "種": 2016,
      "稱": 2017,
      "稷": 2018,
      "稿": 2019,
      "穀": 2020,
      "穆": 2021,
      "積": 2022,
      "穴": 2023,
      "究": 2024,
      "空": 2025,
      "突": 2026,
      "窓": 2027,
      "窮": 2028,
      "立": 2029,
      "章": 2030,
      "童": 2031,
      "端": 2032,
      "競": 2033,
      "竹": 2034,
      "笑": 2035,
      "符": 2036,
      "第": 2037,
      "筆": 2038,
      "等": 2039,
      "答": 2040,
      "策": 2041,
      "箕": 2042,
      "算": 2043,
      "管": 2044,
      "節": 2045,
      "範": 2046,
      "篇": 2047,
      "築": 2048,
      "簡": 2049,
      "簿": 2050,
      "籍": 2051,
      "米": 2052,
      "精": 2053,
      "系": 2054,
      "紀": 2055,
      "約": 2056,
      "紅": 2057,
      "紋": 2058,
      "納": 2059,
      "純": 2060,
      "紙": 2061,
      "級": 2062,
      "素": 2063,
      "紫": 2064,
      "細": 2065,
      "紹": 2066,
      "終": 2067,
      "組": 2068,
      "結": 2069,
      "給": 2070,
      "統": 2071,
      "絲": 2072,
      "絶": 2073,
      "經": 2074,
      "綠": 2075,
      "維": 2076,
      "綱": 2077,
      "網": 2078,
      "線": 2079,
      "緣": 2080,
      "編": 2081,
      "縣": 2082,
      "總": 2083,
      "織": 2084,
      "繼": 2085,
      "續": 2086,
      "罪": 2087,
      "置": 2088,
      "罰": 2089,
      "署": 2090,
      "羅": 2091,
      "羊": 2092,
      "美": 2093,
      "群": 2094,
      "義": 2095,
      "羽": 2096,
      "翁": 2097,
      "翊": 2098,
      "習": 2099,
      "翰": 2100,
      "翼": 2101,
      "老": 2102,
      "考": 2103,
      "者": 2104,
      "而": 2105,
      "耕": 2106,
      "耳": 2107,
      "耶": 2108,
      "聖": 2109,
      "聞": 2110,
      "聯": 2111,
      "聲": 2112,
      "職": 2113,
      "聽": 2114,
      "肅": 2115,
      "肉": 2116,
      "育": 2117,
      "背": 2118,
      "胎": 2119,
      "胡": 2120,
      "能": 2121,
      "脈": 2122,
      "脫": 2123,
      "腦": 2124,
      "腸": 2125,
      "腹": 2126,
      "臣": 2127,
      "臨": 2128,
      "自": 2129,
      "至": 2130,
      "致": 2131,
      "臺": 2132,
      "與": 2133,
      "興": 2134,
      "舊": 2135,
      "舌": 2136,
      "舍": 2137,
      "舜": 2138,
      "舞": 2139,
      "舟": 2140,
      "航": 2141,
      "般": 2142,
      "船": 2143,
      "良": 2144,
      "色": 2145,
      "芝": 2146,
      "花": 2147,
      "芳": 2148,
      "苑": 2149,
      "若": 2150,
      "苦": 2151,
      "英": 2152,
      "茂": 2153,
      "范": 2154,
      "茶": 2155,
      "草": 2156,
      "荒": 2157,
      "荷": 2158,
      "莊": 2159,
      "莫": 2160,
      "菊": 2161,
      "菜": 2162,
      "菩": 2163,
      "華": 2164,
      "菴": 2165,
      "萬": 2166,
      "落": 2167,
      "葉": 2168,
      "著": 2169,
      "葛": 2170,
      "董": 2171,
      "葬": 2172,
      "蒙": 2173,
      "蒼": 2174,
      "蓋": 2175,
      "蓮": 2176,
      "蔡": 2177,
      "蕭": 2178,
      "薄": 2179,
      "薛": 2180,
      "薩": 2181,
      "藏": 2182,
      "藝": 2183,
      "藤": 2184,
      "藥": 2185,
      "藩": 2186,
      "蘇": 2187,
      "蘭": 2188,
      "虎": 2189,
      "處": 2190,
      "虛": 2191,
      "虞": 2192,
      "號": 2193,
      "蛇": 2194,
      "蜀": 2195,
      "融": 2196,
      "血": 2197,
      "衆": 2198,
      "行": 2199,
      "衍": 2200,
      "術": 2201,
      "街": 2202,
      "衛": 2203,
      "衡": 2204,
      "衣": 2205,
      "表": 2206,
      "衰": 2207,
      "袁": 2208,
      "被": 2209,
      "裁": 2210,
      "裕": 2211,
      "補": 2212,
      "裝": 2213,
      "裵": 2214,
      "製": 2215,
      "複": 2216,
      "襄": 2217,
      "西": 2218,
      "要": 2219,
      "覆": 2220,
      "覇": 2221,
      "見": 2222,
      "規": 2223,
      "視": 2224,
      "親": 2225,
      "覺": 2226,
      "覽": 2227,
      "觀": 2228,
      "角": 2229,
      "解": 2230,
      "觸": 2231,
      "言": 2232,
      "計": 2233,
      "討": 2234,
      "訓": 2235,
      "託": 2236,
      "記": 2237,
      "訟": 2238,
      "訥": 2239,
      "訪": 2240,
      "設": 2241,
      "許": 2242,
      "訴": 2243,
      "註": 2244,
      "評": 2245,
      "詞": 2246,
      "試": 2247,
      "詩": 2248,
      "話": 2249,
      "誌": 2250,
      "認": 2251,
      "語": 2252,
      "誠": 2253,
      "誤": 2254,
      "說": 2255,
      "課": 2256,
      "調": 2257,
      "談": 2258,
      "請": 2259,
      "論": 2260,
      "諦": 2261,
      "諫": 2262,
      "諸": 2263,
      "謀": 2264,
      "謂": 2265,
      "謙": 2266,
      "講": 2267,
      "謝": 2268,
      "證": 2269,
      "識": 2270,
      "譜": 2271,
      "警": 2272,
      "譯": 2273,
      "議": 2274,
      "護": 2275,
      "讀": 2276,
      "變": 2277,
      "讓": 2278,
      "谷": 2279,
      "豆": 2280,
      "豈": 2281,
      "豊": 2282,
      "象": 2283,
      "豪": 2284,
      "豫": 2285,
      "貞": 2286,
      "負": 2287,
      "財": 2288,
      "貢": 2289,
      "貧": 2290,
      "貨": 2291,
      "貪": 2292,
      "貫": 2293,
      "責": 2294,
      "貴": 2295,
      "買": 2296,
      "貸": 2297,
      "費": 2298,
      "貿": 2299,
      "賀": 2300,
      "賃": 2301,
      "資": 2302,
      "賈": 2303,
      "賊": 2304,
      "賓": 2305,
      "賜": 2306,
      "賞": 2307,
      "賠": 2308,
      "賢": 2309,
      "賣": 2310,
      "賤": 2311,
      "賦": 2312,
      "質": 2313,
      "贈": 2314,
      "贊": 2315,
      "赤": 2316,
      "走": 2317,
      "起": 2318,
      "超": 2319,
      "越": 2320,
      "趙": 2321,
      "足": 2322,
      "路": 2323,
      "蹟": 2324,
      "身": 2325,
      "車": 2326,
      "軌": 2327,
      "軍": 2328,
      "軒": 2329,
      "載": 2330,
      "輔": 2331,
      "輕": 2332,
      "輝": 2333,
      "輪": 2334,
      "輯": 2335,
      "輸": 2336,
      "輿": 2337,
      "轉": 2338,
      "辛": 2339,
      "辨": 2340,
      "辭": 2341,
      "辯": 2342,
      "辰": 2343,
      "農": 2344,
      "迎": 2345,
      "近": 2346,
      "述": 2347,
      "迷": 2348,
      "追": 2349,
      "退": 2350,
      "送": 2351,
      "逆": 2352,
      "通": 2353,
      "速": 2354,
      "造": 2355,
      "連": 2356,
      "進": 2357,
      "逸": 2358,
      "遂": 2359,
      "遇": 2360,
      "遊": 2361,
      "運": 2362,
      "過": 2363,
      "道": 2364,
      "達": 2365,
      "違": 2366,
      "遠": 2367,
      "適": 2368,
      "遷": 2369,
      "選": 2370,
      "遺": 2371,
      "遼": 2372,
      "避": 2373,
      "還": 2374,
      "邊": 2375,
      "邑": 2376,
      "那": 2377,
      "邦": 2378,
      "邪": 2379,
      "邱": 2380,
      "郎": 2381,
      "郞": 2382,
      "郡": 2383,
      "部": 2384,
      "郭": 2385,
      "都": 2386,
      "鄕": 2387,
      "鄧": 2388,
      "鄭": 2389,
      "酉": 2390,
      "配": 2391,
      "酒": 2392,
      "酸": 2393,
      "醫": 2394,
      "釋": 2395,
      "里": 2396,
      "重": 2397,
      "野": 2398,
      "量": 2399,
      "金": 2400,
      "釜": 2401,
      "針": 2402,
      "鉉": 2403,
      "銀": 2404,
      "銅": 2405,
      "銘": 2406,
      "錄": 2407,
      "錢": 2408,
      "錦": 2409,
      "錫": 2410,
      "錯": 2411,
      "鍾": 2412,
      "鎬": 2413,
      "鎭": 2414,
      "鏡": 2415,
      "鐘": 2416,
      "鐵": 2417,
      "鑑": 2418,
      "長": 2419,
      "門": 2420,
      "開": 2421,
      "閑": 2422,
      "間": 2423,
      "閔": 2424,
      "閣": 2425,
      "關": 2426,
      "阪": 2427,
      "防": 2428,
      "阿": 2429,
      "陀": 2430,
      "附": 2431,
      "降": 2432,
      "限": 2433,
      "院": 2434,
      "陣": 2435,
      "除": 2436,
      "陰": 2437,
      "陳": 2438,
      "陵": 2439,
      "陶": 2440,
      "陸": 2441,
      "陽": 2442,
      "隆": 2443,
      "隊": 2444,
      "隋": 2445,
      "階": 2446,
      "際": 2447,
      "障": 2448,
      "隨": 2449,
      "險": 2450,
      "隱": 2451,
      "雄": 2452,
      "雅": 2453,
      "集": 2454,
      "雖": 2455,
      "雙": 2456,
      "雜": 2457,
      "離": 2458,
      "難": 2459,
      "雨": 2460,
      "雪": 2461,
      "雲": 2462,
      "電": 2463,
      "需": 2464,
      "震": 2465,
      "露": 2466,
      "靈": 2467,
      "靑": 2468,
      "靖": 2469,
      "靜": 2470,
      "非": 2471,
      "面": 2472,
      "革": 2473,
      "韓": 2474,
      "音": 2475,
      "韻": 2476,
      "頂": 2477,
      "項": 2478,
      "順": 2479,
      "須": 2480,
      "頌": 2481,
      "領": 2482,
      "頭": 2483,
      "題": 2484,
      "額": 2485,
      "顔": 2486,
      "願": 2487,
      "類": 2488,
      "顧": 2489,
      "顯": 2490,
      "風": 2491,
      "飛": 2492,
      "食": 2493,
      "飮": 2494,
      "飯": 2495,
      "養": 2496,
      "餘": 2497,
      "館": 2498,
      "首": 2499,
      "香": 2500,
      "馬": 2501,
      "駐": 2502,
      "騎": 2503,
      "驗": 2504,
      "驛": 2505,
      "骨": 2506,
      "體": 2507,
      "高": 2508,
      "髮": 2509,
      "鬪": 2510,
      "鬼": 2511,
      "魂": 2512,
      "魏": 2513,
      "魔": 2514,
      "魚": 2515,
      "魯": 2516,
      "鮮": 2517,
      "鳥": 2518,
      "鳳": 2519,
      "鳴": 2520,
      "鴻": 2521,
      "鶴": 2522,
      "鷄": 2523,
      "鹽": 2524,
      "鹿": 2525,
      "麗": 2526,
      "麟": 2527,
      "麻": 2528,
      "黃": 2529,
      "黑": 2530,
      "默": 2531,
      "點": 2532,
      "黨": 2533,
      "鼎": 2534,
      "鼓": 2535,
      "齊": 2536,
      "齋": 2537,
      "齒": 2538,
      "齡": 2539,
      "龍": 2540,
      "龜": 2541,
      "가": 2542,
      "각": 2543,
      "간": 2544,
      "갇": 2545,
      "갈": 2546,
      "갉": 2547,
      "감": 2548,
      "갑": 2549,
      "값": 2550,
      "갓": 2551,
      "갔": 2552,
      "강": 2553,
      "갖": 2554,
      "갗": 2555,
      "같": 2556,
      "갚": 2557,
      "갛": 2558,
      "개": 2559,
      "객": 2560,
      "갠": 2561,
      "갤": 2562,
      "갬": 2563,
      "갭": 2564,
      "갯": 2565,
      "갰": 2566,
      "갱": 2567,
      "갸": 2568,
      "걀": 2569,
      "걍": 2570,
      "걔": 2571,
      "거": 2572,
      "걱": 2573,
      "건": 2574,
      "걷": 2575,
      "걸": 2576,
      "검": 2577,
      "겁": 2578,
      "것": 2579,
      "겄": 2580,
      "겅": 2581,
      "겉": 2582,
      "겊": 2583,
      "겋": 2584,
      "게": 2585,
      "겐": 2586,
      "겔": 2587,
      "겜": 2588,
      "겟": 2589,
      "겠": 2590,
      "겡": 2591,
      "겨": 2592,
      "격": 2593,
      "겪": 2594,
      "견": 2595,
      "결": 2596,
      "겸": 2597,
      "겹": 2598,
      "겻": 2599,
      "겼": 2600,
      "경": 2601,
      "곁": 2602,
      "계": 2603,
      "곗": 2604,
      "고": 2605,
      "곡": 2606,
      "곤": 2607,
      "곧": 2608,
      "골": 2609,
      "곪": 2610,
      "곯": 2611,
      "곰": 2612,
      "곱": 2613,
      "곳": 2614,
      "공": 2615,
      "곶": 2616,
      "곸": 2617,
      "과": 2618,
      "곽": 2619,
      "관": 2620,
      "괄": 2621,
      "괌": 2622,
      "광": 2623,
      "괘": 2624,
      "괜": 2625,
      "괭": 2626,
      "괴": 2627,
      "굉": 2628,
      "교": 2629,
      "굣": 2630,
      "구": 2631,
      "국": 2632,
      "군": 2633,
      "굳": 2634,
      "굴": 2635,
      "굵": 2636,
      "굶": 2637,
      "굼": 2638,
      "굽": 2639,
      "굿": 2640,
      "궁": 2641,
      "궂": 2642,
      "궈": 2643,
      "권": 2644,
      "궐": 2645,
      "궜": 2646,
      "궤": 2647,
      "귀": 2648,
      "귄": 2649,
      "귈": 2650,
      "귐": 2651,
      "귓": 2652,
      "규": 2653,
      "균": 2654,
      "귤": 2655,
      "그": 2656,
      "극": 2657,
      "근": 2658,
      "글": 2659,
      "긁": 2660,
      "금": 2661,
      "급": 2662,
      "긋": 2663,
      "긍": 2664,
      "긔": 2665,
      "기": 2666,
      "긱": 2667,
      "긴": 2668,
      "길": 2669,
      "긿": 2670,
      "김": 2671,
      "깁": 2672,
      "깃": 2673,
      "깄": 2674,
      "깅": 2675,
      "깊": 2676,
      "까": 2677,
      "깍": 2678,
      "깎": 2679,
      "깐": 2680,
      "깔": 2681,
      "깜": 2682,
      "깝": 2683,
      "깟": 2684,
      "깡": 2685,
      "깥": 2686,
      "깨": 2687,
      "깬": 2688,
      "깰": 2689,
      "깻": 2690,
      "깼": 2691,
      "깽": 2692,
      "꺄": 2693,
      "꺅": 2694,
      "꺼": 2695,
      "꺽": 2696,
      "꺾": 2697,
      "껀": 2698,
      "껄": 2699,
      "껌": 2700,
      "껍": 2701,
      "껏": 2702,
      "껐": 2703,
      "껑": 2704,
      "께": 2705,
      "껴": 2706,
      "꼈": 2707,
      "꼬": 2708,
      "꼭": 2709,
      "꼰": 2710,
      "꼴": 2711,
      "꼼": 2712,
      "꼽": 2713,
      "꼿": 2714,
      "꽁": 2715,
      "꽂": 2716,
      "꽃": 2717,
      "꽈": 2718,
      "꽉": 2719,
      "꽝": 2720,
      "꽤": 2721,
      "꽥": 2722,
      "꽹": 2723,
      "꾀": 2724,
      "꾸": 2725,
      "꾹": 2726,
      "꾼": 2727,
      "꿀": 2728,
      "꿇": 2729,
      "꿈": 2730,
      "꿉": 2731,
      "꿋": 2732,
      "꿍": 2733,
      "꿎": 2734,
      "꿔": 2735,
      "꿨": 2736,
      "꿩": 2737,
      "꿰": 2738,
      "뀌": 2739,
      "뀐": 2740,
      "뀔": 2741,
      "뀜": 2742,
      "뀨": 2743,
      "끄": 2744,
      "끈": 2745,
      "끊": 2746,
      "끌": 2747,
      "끓": 2748,
      "끔": 2749,
      "끗": 2750,
      "끙": 2751,
      "끝": 2752,
      "끼": 2753,
      "끽": 2754,
      "낀": 2755,
      "낄": 2756,
      "낌": 2757,
      "낍": 2758,
      "낑": 2759,
      "나": 2760,
      "낙": 2761,
      "낚": 2762,
      "난": 2763,
      "낟": 2764,
      "날": 2765,
      "낡": 2766,
      "남": 2767,
      "납": 2768,
      "낫": 2769,
      "났": 2770,
      "낭": 2771,
      "낮": 2772,
      "낯": 2773,
      "낱": 2774,
      "낳": 2775,
      "내": 2776,
      "낵": 2777,
      "낸": 2778,
      "낼": 2779,
      "냄": 2780,
      "냅": 2781,
      "냇": 2782,
      "냈": 2783,
      "냉": 2784,
      "냐": 2785,
      "냑": 2786,
      "냔": 2787,
      "냘": 2788,
      "냠": 2789,
      "냥": 2790,
      "너": 2791,
      "넉": 2792,
      "넋": 2793,
      "넌": 2794,
      "널": 2795,
      "넓": 2796,
      "넘": 2797,
      "넙": 2798,
      "넛": 2799,
      "넜": 2800,
      "넝": 2801,
      "넣": 2802,
      "네": 2803,
      "넥": 2804,
      "넨": 2805,
      "넬": 2806,
      "넴": 2807,
      "넵": 2808,
      "넷": 2809,
      "넸": 2810,
      "넹": 2811,
      "넼": 2812,
      "녀": 2813,
      "녁": 2814,
      "년": 2815,
      "념": 2816,
      "녔": 2817,
      "녕": 2818,
      "녘": 2819,
      "녜": 2820,
      "노": 2821,
      "녹": 2822,
      "논": 2823,
      "놀": 2824,
      "놈": 2825,
      "놉": 2826,
      "놋": 2827,
      "농": 2828,
      "높": 2829,
      "놓": 2830,
      "놔": 2831,
      "놨": 2832,
      "뇌": 2833,
      "뇨": 2834,
      "뇰": 2835,
      "뇸": 2836,
      "뇽": 2837,
      "누": 2838,
      "눅": 2839,
      "눈": 2840,
      "눌": 2841,
      "눔": 2842,
      "눕": 2843,
      "눗": 2844,
      "눙": 2845,
      "눠": 2846,
      "눴": 2847,
      "뉘": 2848,
      "뉜": 2849,
      "뉠": 2850,
      "뉴": 2851,
      "늄": 2852,
      "늉": 2853,
      "느": 2854,
      "늑": 2855,
      "는": 2856,
      "늘": 2857,
      "늙": 2858,
      "늠": 2859,
      "능": 2860,
      "늦": 2861,
      "늪": 2862,
      "늬": 2863,
      "니": 2864,
      "닉": 2865,
      "닌": 2866,
      "닐": 2867,
      "님": 2868,
      "닙": 2869,
      "닛": 2870,
      "닝": 2871,
      "닢": 2872,
      "다": 2873,
      "닥": 2874,
      "닦": 2875,
      "단": 2876,
      "닫": 2877,
      "달": 2878,
      "닭": 2879,
      "닮": 2880,
      "닳": 2881,
      "담": 2882,
      "답": 2883,
      "닷": 2884,
      "당": 2885,
      "닻": 2886,
      "닼": 2887,
      "닿": 2888,
      "대": 2889,
      "댁": 2890,
      "댄": 2891,
      "댈": 2892,
      "댐": 2893,
      "댑": 2894,
      "댓": 2895,
      "댔": 2896,
      "댕": 2897,
      "댜": 2898,
      "더": 2899,
      "덕": 2900,
      "던": 2901,
      "덜": 2902,
      "덟": 2903,
      "덤": 2904,
      "덥": 2905,
      "덧": 2906,
      "덩": 2907,
      "덫": 2908,
      "덮": 2909,
      "데": 2910,
      "덱": 2911,
      "덴": 2912,
      "델": 2913,
      "뎀": 2914,
      "뎁": 2915,
      "뎃": 2916,
      "뎅": 2917,
      "뎈": 2918,
      "뎌": 2919,
      "뎐": 2920,
      "뎠": 2921,
      "도": 2922,
      "독": 2923,
      "돈": 2924,
      "돋": 2925,
      "돌": 2926,
      "돔": 2927,
      "돕": 2928,
      "돗": 2929,
      "동": 2930,
      "돛": 2931,
      "돼": 2932,
      "됏": 2933,
      "됐": 2934,
      "되": 2935,
      "된": 2936,
      "될": 2937,
      "됨": 2938,
      "됩": 2939,
      "됬": 2940,
      "됴": 2941,
      "두": 2942,
      "둑": 2943,
      "둔": 2944,
      "둘": 2945,
      "둠": 2946,
      "둡": 2947,
      "둣": 2948,
      "둥": 2949,
      "둬": 2950,
      "뒀": 2951,
      "뒈": 2952,
      "뒤": 2953,
      "뒷": 2954,
      "뒹": 2955,
      "듀": 2956,
      "듈": 2957,
      "듐": 2958,
      "드": 2959,
      "득": 2960,
      "든": 2961,
      "듣": 2962,
      "들": 2963,
      "듦": 2964,
      "듬": 2965,
      "듭": 2966,
      "듯": 2967,
      "등": 2968,
      "디": 2969,
      "딕": 2970,
      "딘": 2971,
      "딛": 2972,
      "딜": 2973,
      "딤": 2974,
      "딥": 2975,
      "딧": 2976,
      "딨": 2977,
      "딩": 2978,
      "딪": 2979,
      "따": 2980,
      "딱": 2981,
      "딴": 2982,
      "딸": 2983,
      "땀": 2984,
      "땃": 2985,
      "땄": 2986,
      "땅": 2987,
      "땋": 2988,
      "때": 2989,
      "땐": 2990,
      "땔": 2991,
      "땜": 2992,
      "땠": 2993,
      "땡": 2994,
      "떄": 2995,
      "떠": 2996,
      "떡": 2997,
      "떤": 2998,
      "떨": 2999,
      "떫": 3000,
      "떳": 3001,
      "떴": 3002,
      "떵": 3003,
      "떻": 3004,
      "떼": 3005,
      "뗀": 3006,
      "뗄": 3007,
      "뗏": 3008,
      "뗐": 3009,
      "또": 3010,
      "똑": 3011,
      "똘": 3012,
      "똥": 3013,
      "똬": 3014,
      "뙇": 3015,
      "뙤": 3016,
      "뚜": 3017,
      "뚝": 3018,
      "뚠": 3019,
      "뚤": 3020,
      "뚫": 3021,
      "뚱": 3022,
      "뛰": 3023,
      "뛴": 3024,
      "뛸": 3025,
      "뜀": 3026,
      "뜨": 3027,
      "뜩": 3028,
      "뜬": 3029,
      "뜯": 3030,
      "뜰": 3031,
      "뜸": 3032,
      "뜻": 3033,
      "띄": 3034,
      "띈": 3035,
      "띌": 3036,
      "띔": 3037,
      "띠": 3038,
      "띤": 3039,
      "띨": 3040,
      "띵": 3041,
      "라": 3042,
      "락": 3043,
      "란": 3044,
      "랄": 3045,
      "람": 3046,
      "랍": 3047,
      "랏": 3048,
      "랐": 3049,
      "랑": 3050,
      "랖": 3051,
      "랗": 3052,
      "래": 3053,
      "랙": 3054,
      "랜": 3055,
      "랠": 3056,
      "램": 3057,
      "랩": 3058,
      "랫": 3059,
      "랬": 3060,
      "랭": 3061,
      "랴": 3062,
      "략": 3063,
      "량": 3064,
      "러": 3065,
      "럭": 3066,
      "런": 3067,
      "럴": 3068,
      "럼": 3069,
      "럽": 3070,
      "럿": 3071,
      "렀": 3072,
      "렁": 3073,
      "렇": 3074,
      "레": 3075,
      "렉": 3076,
      "렌": 3077,
      "렐": 3078,
      "렘": 3079,
      "렙": 3080,
      "렛": 3081,
      "렝": 3082,
      "려": 3083,
      "력": 3084,
      "련": 3085,
      "렬": 3086,
      "렴": 3087,
      "렵": 3088,
      "렷": 3089,
      "렸": 3090,
      "령": 3091,
      "례": 3092,
      "롄": 3093,
      "로": 3094,
      "록": 3095,
      "론": 3096,
      "롤": 3097,
      "롬": 3098,
      "롭": 3099,
      "롯": 3100,
      "롱": 3101,
      "뢰": 3102,
      "뢴": 3103,
      "룀": 3104,
      "료": 3105,
      "룡": 3106,
      "루": 3107,
      "룩": 3108,
      "룬": 3109,
      "룰": 3110,
      "룸": 3111,
      "룹": 3112,
      "룻": 3113,
      "룽": 3114,
      "뤄": 3115,
      "뤘": 3116,
      "뤼": 3117,
      "뤽": 3118,
      "류": 3119,
      "륙": 3120,
      "륜": 3121,
      "률": 3122,
      "륨": 3123,
      "륭": 3124,
      "르": 3125,
      "륵": 3126,
      "른": 3127,
      "를": 3128,
      "름": 3129,
      "릅": 3130,
      "릇": 3131,
      "릉": 3132,
      "릎": 3133,
      "릏": 3134,
      "리": 3135,
      "릭": 3136,
      "린": 3137,
      "릴": 3138,
      "림": 3139,
      "립": 3140,
      "릿": 3141,
      "링": 3142,
      "마": 3143,
      "막": 3144,
      "만": 3145,
      "많": 3146,
      "맏": 3147,
      "말": 3148,
      "맑": 3149,
      "맘": 3150,
      "맙": 3151,
      "맛": 3152,
      "망": 3153,
      "맞": 3154,
      "맡": 3155,
      "맣": 3156,
      "매": 3157,
      "맥": 3158,
      "맨": 3159,
      "맬": 3160,
      "맴": 3161,
      "맵": 3162,
      "맷": 3163,
      "맸": 3164,
      "맹": 3165,
      "맺": 3166,
      "먀": 3167,
      "먐": 3168,
      "머": 3169,
      "먹": 3170,
      "먼": 3171,
      "멀": 3172,
      "멈": 3173,
      "멋": 3174,
      "멍": 3175,
      "멎": 3176,
      "멓": 3177,
      "메": 3178,
      "멕": 3179,
      "멘": 3180,
      "멜": 3181,
      "멤": 3182,
      "멧": 3183,
      "멩": 3184,
      "며": 3185,
      "멱": 3186,
      "면": 3187,
      "멸": 3188,
      "몄": 3189,
      "명": 3190,
      "몇": 3191,
      "모": 3192,
      "목": 3193,
      "몫": 3194,
      "몬": 3195,
      "몰": 3196,
      "몸": 3197,
      "몹": 3198,
      "못": 3199,
      "몽": 3200,
      "뫼": 3201,
      "묘": 3202,
      "무": 3203,
      "묵": 3204,
      "묶": 3205,
      "문": 3206,
      "묻": 3207,
      "물": 3208,
      "묽": 3209,
      "뭄": 3210,
      "뭇": 3211,
      "뭉": 3212,
      "뭍": 3213,
      "뭐": 3214,
      "뭔": 3215,
      "뭘": 3216,
      "뭡": 3217,
      "뭣": 3218,
      "뮈": 3219,
      "뮌": 3220,
      "뮐": 3221,
      "뮤": 3222,
      "뮨": 3223,
      "뮬": 3224,
      "뮴": 3225,
      "므": 3226,
      "믄": 3227,
      "믈": 3228,
      "믐": 3229,
      "미": 3230,
      "믹": 3231,
      "민": 3232,
      "믿": 3233,
      "밀": 3234,
      "밈": 3235,
      "밉": 3236,
      "밋": 3237,
      "밌": 3238,
      "밍": 3239,
      "및": 3240,
      "밑": 3241,
      "바": 3242,
      "박": 3243,
      "밖": 3244,
      "반": 3245,
      "받": 3246,
      "발": 3247,
      "밝": 3248,
      "밟": 3249,
      "밤": 3250,
      "밥": 3251,
      "밧": 3252,
      "방": 3253,
      "밭": 3254,
      "배": 3255,
      "백": 3256,
      "밴": 3257,
      "밸": 3258,
      "뱀": 3259,
      "뱃": 3260,
      "뱅": 3261,
      "뱉": 3262,
      "뱌": 3263,
      "버": 3264,
      "벅": 3265,
      "번": 3266,
      "벌": 3267,
      "범": 3268,
      "법": 3269,
      "벗": 3270,
      "벙": 3271,
      "벚": 3272,
      "베": 3273,
      "벡": 3274,
      "벤": 3275,
      "벧": 3276,
      "벨": 3277,
      "벳": 3278,
      "벵": 3279,
      "벼": 3280,
      "벽": 3281,
      "변": 3282,
      "별": 3283,
      "볍": 3284,
      "볏": 3285,
      "볐": 3286,
      "병": 3287,
      "볕": 3288,
      "볜": 3289,
      "보": 3290,
      "복": 3291,
      "볶": 3292,
      "본": 3293,
      "볼": 3294,
      "봄": 3295,
      "봅": 3296,
      "봇": 3297,
      "봉": 3298,
      "봐": 3299,
      "봣": 3300,
      "봤": 3301,
      "봬": 3302,
      "뵈": 3303,
      "뵌": 3304,
      "뵐": 3305,
      "뵙": 3306,
      "뵤": 3307,
      "부": 3308,
      "북": 3309,
      "분": 3310,
      "불": 3311,
      "붉": 3312,
      "붐": 3313,
      "붓": 3314,
      "붕": 3315,
      "붙": 3316,
      "뷔": 3317,
      "뷰": 3318,
      "뷴": 3319,
      "뷸": 3320,
      "브": 3321,
      "븐": 3322,
      "블": 3323,
      "비": 3324,
      "빅": 3325,
      "빈": 3326,
      "빌": 3327,
      "빔": 3328,
      "빕": 3329,
      "빗": 3330,
      "빙": 3331,
      "빚": 3332,
      "빛": 3333,
      "빠": 3334,
      "빡": 3335,
      "빤": 3336,
      "빨": 3337,
      "빰": 3338,
      "빳": 3339,
      "빴": 3340,
      "빵": 3341,
      "빻": 3342,
      "빼": 3343,
      "빽": 3344,
      "뺀": 3345,
      "뺄": 3346,
      "뺌": 3347,
      "뺏": 3348,
      "뺐": 3349,
      "뺑": 3350,
      "뺨": 3351,
      "뻐": 3352,
      "뻑": 3353,
      "뻔": 3354,
      "뻗": 3355,
      "뻘": 3356,
      "뻣": 3357,
      "뻤": 3358,
      "뻥": 3359,
      "뻬": 3360,
      "뼈": 3361,
      "뼉": 3362,
      "뼘": 3363,
      "뼛": 3364,
      "뽀": 3365,
      "뽁": 3366,
      "뽈": 3367,
      "뽐": 3368,
      "뽑": 3369,
      "뽕": 3370,
      "뾰": 3371,
      "뿅": 3372,
      "뿌": 3373,
      "뿍": 3374,
      "뿐": 3375,
      "뿔": 3376,
      "뿜": 3377,
      "뿡": 3378,
      "쁘": 3379,
      "쁜": 3380,
      "쁠": 3381,
      "쁨": 3382,
      "쁩": 3383,
      "삐": 3384,
      "삑": 3385,
      "삘": 3386,
      "삥": 3387,
      "사": 3388,
      "삭": 3389,
      "삯": 3390,
      "산": 3391,
      "살": 3392,
      "삶": 3393,
      "삼": 3394,
      "삽": 3395,
      "삿": 3396,
      "샀": 3397,
      "상": 3398,
      "샅": 3399,
      "새": 3400,
      "색": 3401,
      "샌": 3402,
      "샐": 3403,
      "샘": 3404,
      "샛": 3405,
      "샜": 3406,
      "생": 3407,
      "샤": 3408,
      "샥": 3409,
      "샨": 3410,
      "샬": 3411,
      "샴": 3412,
      "샵": 3413,
      "샷": 3414,
      "샹": 3415,
      "섀": 3416,
      "서": 3417,
      "석": 3418,
      "섞": 3419,
      "선": 3420,
      "섣": 3421,
      "설": 3422,
      "섬": 3423,
      "섭": 3424,
      "섯": 3425,
      "섰": 3426,
      "성": 3427,
      "섶": 3428,
      "세": 3429,
      "섹": 3430,
      "센": 3431,
      "셀": 3432,
      "셈": 3433,
      "셉": 3434,
      "셋": 3435,
      "셌": 3436,
      "셍": 3437,
      "셔": 3438,
      "션": 3439,
      "셜": 3440,
      "셤": 3441,
      "셧": 3442,
      "셨": 3443,
      "셩": 3444,
      "셰": 3445,
      "셴": 3446,
      "셸": 3447,
      "소": 3448,
      "속": 3449,
      "솎": 3450,
      "손": 3451,
      "솔": 3452,
      "솜": 3453,
      "솝": 3454,
      "솟": 3455,
      "송": 3456,
      "솥": 3457,
      "쇄": 3458,
      "쇠": 3459,
      "쇤": 3460,
      "쇳": 3461,
      "쇼": 3462,
      "숀": 3463,
      "숄": 3464,
      "숍": 3465,
      "숏": 3466,
      "숑": 3467,
      "수": 3468,
      "숙": 3469,
      "순": 3470,
      "숟": 3471,
      "술": 3472,
      "숨": 3473,
      "숩": 3474,
      "숫": 3475,
      "숭": 3476,
      "숯": 3477,
      "숱": 3478,
      "숲": 3479,
      "숴": 3480,
      "쉐": 3481,
      "쉑": 3482,
      "쉘": 3483,
      "쉬": 3484,
      "쉰": 3485,
      "쉴": 3486,
      "쉼": 3487,
      "쉽": 3488,
      "쉿": 3489,
      "슈": 3490,
      "슉": 3491,
      "슌": 3492,
      "슐": 3493,
      "슘": 3494,
      "슛": 3495,
      "슝": 3496,
      "스": 3497,
      "슥": 3498,
      "슨": 3499,
      "슬": 3500,
      "슭": 3501,
      "슴": 3502,
      "습": 3503,
      "슷": 3504,
      "승": 3505,
      "시": 3506,
      "식": 3507,
      "신": 3508,
      "싣": 3509,
      "실": 3510,
      "싫": 3511,
      "심": 3512,
      "십": 3513,
      "싯": 3514,
      "싱": 3515,
      "싶": 3516,
      "싸": 3517,
      "싹": 3518,
      "싼": 3519,
      "쌀": 3520,
      "쌈": 3521,
      "쌉": 3522,
      "쌌": 3523,
      "쌍": 3524,
      "쌓": 3525,
      "쌔": 3526,
      "쌕": 3527,
      "쌤": 3528,
      "쌩": 3529,
      "써": 3530,
      "썩": 3531,
      "썬": 3532,
      "썰": 3533,
      "썸": 3534,
      "썹": 3535,
      "썼": 3536,
      "썽": 3537,
      "쎄": 3538,
      "쎈": 3539,
      "쏘": 3540,
      "쏙": 3541,
      "쏜": 3542,
      "쏟": 3543,
      "쏠": 3544,
      "쏭": 3545,
      "쏴": 3546,
      "쐈": 3547,
      "쐐": 3548,
      "쐬": 3549,
      "쑤": 3550,
      "쑥": 3551,
      "쑨": 3552,
      "쑹": 3553,
      "쓰": 3554,
      "쓱": 3555,
      "쓴": 3556,
      "쓸": 3557,
      "씀": 3558,
      "씁": 3559,
      "씌": 3560,
      "씨": 3561,
      "씩": 3562,
      "씬": 3563,
      "씰": 3564,
      "씸": 3565,
      "씹": 3566,
      "씻": 3567,
      "씽": 3568,
      "아": 3569,
      "악": 3570,
      "안": 3571,
      "앉": 3572,
      "않": 3573,
      "알": 3574,
      "앎": 3575,
      "앓": 3576,
      "암": 3577,
      "압": 3578,
      "앗": 3579,
      "았": 3580,
      "앙": 3581,
      "앜": 3582,
      "앞": 3583,
      "애": 3584,
      "액": 3585,
      "앤": 3586,
      "앨": 3587,
      "앰": 3588,
      "앱": 3589,
      "앳": 3590,
      "앴": 3591,
      "앵": 3592,
      "야": 3593,
      "약": 3594,
      "얀": 3595,
      "얄": 3596,
      "얇": 3597,
      "얌": 3598,
      "얍": 3599,
      "얏": 3600,
      "양": 3601,
      "얕": 3602,
      "얗": 3603,
      "얘": 3604,
      "어": 3605,
      "억": 3606,
      "언": 3607,
      "얹": 3608,
      "얻": 3609,
      "얼": 3610,
      "얽": 3611,
      "엄": 3612,
      "업": 3613,
      "없": 3614,
      "엇": 3615,
      "었": 3616,
      "엉": 3617,
      "엊": 3618,
      "엌": 3619,
      "엎": 3620,
      "에": 3621,
      "엑": 3622,
      "엔": 3623,
      "엘": 3624,
      "엠": 3625,
      "엡": 3626,
      "엣": 3627,
      "엥": 3628,
      "여": 3629,
      "역": 3630,
      "엮": 3631,
      "연": 3632,
      "열": 3633,
      "엷": 3634,
      "염": 3635,
      "엽": 3636,
      "엾": 3637,
      "엿": 3638,
      "였": 3639,
      "영": 3640,
      "옅": 3641,
      "옆": 3642,
      "옇": 3643,
      "예": 3644,
      "옌": 3645,
      "옐": 3646,
      "옙": 3647,
      "옛": 3648,
      "오": 3649,
      "옥": 3650,
      "온": 3651,
      "올": 3652,
      "옭": 3653,
      "옮": 3654,
      "옳": 3655,
      "옴": 3656,
      "옵": 3657,
      "옷": 3658,
      "옹": 3659,
      "옻": 3660,
      "와": 3661,
      "왁": 3662,
      "완": 3663,
      "왈": 3664,
      "왑": 3665,
      "왓": 3666,
      "왔": 3667,
      "왕": 3668,
      "왜": 3669,
      "왠": 3670,
      "왤": 3671,
      "외": 3672,
      "왼": 3673,
      "요": 3674,
      "욕": 3675,
      "욘": 3676,
      "욜": 3677,
      "욤": 3678,
      "욥": 3679,
      "욧": 3680,
      "용": 3681,
      "욬": 3682,
      "우": 3683,
      "욱": 3684,
      "운": 3685,
      "울": 3686,
      "움": 3687,
      "웁": 3688,
      "웃": 3689,
      "웅": 3690,
      "워": 3691,
      "웍": 3692,
      "원": 3693,
      "월": 3694,
      "웜": 3695,
      "웟": 3696,
      "웠": 3697,
      "웡": 3698,
      "웨": 3699,
      "웩": 3700,
      "웬": 3701,
      "웰": 3702,
      "웸": 3703,
      "웹": 3704,
      "위": 3705,
      "윅": 3706,
      "윈": 3707,
      "윌": 3708,
      "윔": 3709,
      "윕": 3710,
      "윗": 3711,
      "윙": 3712,
      "유": 3713,
      "육": 3714,
      "윤": 3715,
      "율": 3716,
      "윳": 3717,
      "융": 3718,
      "윷": 3719,
      "으": 3720,
      "윽": 3721,
      "은": 3722,
      "을": 3723,
      "읊": 3724,
      "음": 3725,
      "읍": 3726,
      "응": 3727,
      "의": 3728,
      "이": 3729,
      "익": 3730,
      "인": 3731,
      "일": 3732,
      "읽": 3733,
      "잃": 3734,
      "임": 3735,
      "입": 3736,
      "잇": 3737,
      "있": 3738,
      "잉": 3739,
      "잊": 3740,
      "잌": 3741,
      "잎": 3742,
      "자": 3743,
      "작": 3744,
      "잔": 3745,
      "잖": 3746,
      "잘": 3747,
      "잠": 3748,
      "잡": 3749,
      "잣": 3750,
      "잤": 3751,
      "장": 3752,
      "잦": 3753,
      "재": 3754,
      "잭": 3755,
      "잰": 3756,
      "잴": 3757,
      "잼": 3758,
      "잽": 3759,
      "잿": 3760,
      "쟁": 3761,
      "쟈": 3762,
      "쟌": 3763,
      "쟝": 3764,
      "쟤": 3765,
      "저": 3766,
      "적": 3767,
      "전": 3768,
      "절": 3769,
      "젊": 3770,
      "점": 3771,
      "접": 3772,
      "젓": 3773,
      "정": 3774,
      "젖": 3775,
      "제": 3776,
      "젝": 3777,
      "젠": 3778,
      "젤": 3779,
      "젬": 3780,
      "젭": 3781,
      "젯": 3782,
      "져": 3783,
      "젼": 3784,
      "졋": 3785,
      "졌": 3786,
      "졍": 3787,
      "졔": 3788,
      "조": 3789,
      "족": 3790,
      "존": 3791,
      "졸": 3792,
      "좀": 3793,
      "좁": 3794,
      "좃": 3795,
      "종": 3796,
      "좆": 3797,
      "좇": 3798,
      "좋": 3799,
      "좌": 3800,
      "좔": 3801,
      "좡": 3802,
      "죄": 3803,
      "죗": 3804,
      "죠": 3805,
      "죤": 3806,
      "죵": 3807,
      "주": 3808,
      "죽": 3809,
      "준": 3810,
      "줄": 3811,
      "줌": 3812,
      "줍": 3813,
      "줏": 3814,
      "중": 3815,
      "줘": 3816,
      "줫": 3817,
      "줬": 3818,
      "쥐": 3819,
      "쥔": 3820,
      "쥘": 3821,
      "쥬": 3822,
      "쥰": 3823,
      "쥴": 3824,
      "즁": 3825,
      "즈": 3826,
      "즉": 3827,
      "즌": 3828,
      "즐": 3829,
      "즘": 3830,
      "즙": 3831,
      "증": 3832,
      "지": 3833,
      "직": 3834,
      "진": 3835,
      "질": 3836,
      "짊": 3837,
      "짐": 3838,
      "집": 3839,
      "짓": 3840,
      "징": 3841,
      "짖": 3842,
      "짙": 3843,
      "짚": 3844,
      "짜": 3845,
      "짝": 3846,
      "짠": 3847,
      "짢": 3848,
      "짤": 3849,
      "짧": 3850,
      "짬": 3851,
      "짭": 3852,
      "짰": 3853,
      "짱": 3854,
      "째": 3855,
      "짹": 3856,
      "쨋": 3857,
      "쨌": 3858,
      "쨍": 3859,
      "쨔": 3860,
      "쨩": 3861,
      "쩌": 3862,
      "쩍": 3863,
      "쩐": 3864,
      "쩔": 3865,
      "쩜": 3866,
      "쩝": 3867,
      "쩡": 3868,
      "쩨": 3869,
      "쪄": 3870,
      "쪘": 3871,
      "쪼": 3872,
      "쪽": 3873,
      "쫀": 3874,
      "쫄": 3875,
      "쫌": 3876,
      "쫑": 3877,
      "쫒": 3878,
      "쫓": 3879,
      "쫘": 3880,
      "쫙": 3881,
      "쬐": 3882,
      "쭈": 3883,
      "쭉": 3884,
      "쭐": 3885,
      "쭙": 3886,
      "쭝": 3887,
      "쭤": 3888,
      "쮸": 3889,
      "쯔": 3890,
      "쯤": 3891,
      "쯧": 3892,
      "찌": 3893,
      "찍": 3894,
      "찐": 3895,
      "찔": 3896,
      "찜": 3897,
      "찝": 3898,
      "찡": 3899,
      "찢": 3900,
      "찧": 3901,
      "차": 3902,
      "착": 3903,
      "찬": 3904,
      "찮": 3905,
      "찰": 3906,
      "참": 3907,
      "찹": 3908,
      "찻": 3909,
      "찼": 3910,
      "창": 3911,
      "찾": 3912,
      "채": 3913,
      "책": 3914,
      "챈": 3915,
      "챌": 3916,
      "챔": 3917,
      "챕": 3918,
      "챗": 3919,
      "챘": 3920,
      "챙": 3921,
      "챠": 3922,
      "챱": 3923,
      "처": 3924,
      "척": 3925,
      "천": 3926,
      "철": 3927,
      "첨": 3928,
      "첩": 3929,
      "첫": 3930,
      "청": 3931,
      "체": 3932,
      "첵": 3933,
      "첸": 3934,
      "첼": 3935,
      "쳇": 3936,
      "쳉": 3937,
      "쳐": 3938,
      "쳣": 3939,
      "쳤": 3940,
      "초": 3941,
      "촉": 3942,
      "촌": 3943,
      "촐": 3944,
      "촘": 3945,
      "촛": 3946,
      "총": 3947,
      "촤": 3948,
      "촨": 3949,
      "촬": 3950,
      "촵": 3951,
      "최": 3952,
      "쵸": 3953,
      "추": 3954,
      "축": 3955,
      "춘": 3956,
      "출": 3957,
      "춤": 3958,
      "춥": 3959,
      "춧": 3960,
      "충": 3961,
      "춰": 3962,
      "췄": 3963,
      "췌": 3964,
      "취": 3965,
      "츄": 3966,
      "츠": 3967,
      "측": 3968,
      "츨": 3969,
      "츰": 3970,
      "층": 3971,
      "치": 3972,
      "칙": 3973,
      "친": 3974,
      "칠": 3975,
      "칡": 3976,
      "침": 3977,
      "칩": 3978,
      "칫": 3979,
      "칭": 3980,
      "카": 3981,
      "칵": 3982,
      "칸": 3983,
      "칼": 3984,
      "캄": 3985,
      "캅": 3986,
      "캇": 3987,
      "캉": 3988,
      "캐": 3989,
      "캔": 3990,
      "캘": 3991,
      "캠": 3992,
      "캡": 3993,
      "캣": 3994,
      "캥": 3995,
      "캬": 3996,
      "커": 3997,
      "컥": 3998,
      "컨": 3999,
      "컫": 4000,
      "컬": 4001,
      "컴": 4002,
      "컵": 4003,
      "컷": 4004,
      "컸": 4005,
      "컹": 4006,
      "케": 4007,
      "켄": 4008,
      "켈": 4009,
      "켐": 4010,
      "켓": 4011,
      "켜": 4012,
      "켠": 4013,
      "켤": 4014,
      "켰": 4015,
      "코": 4016,
      "콕": 4017,
      "콘": 4018,
      "콜": 4019,
      "콤": 4020,
      "콥": 4021,
      "콧": 4022,
      "콩": 4023,
      "콰": 4024,
      "콱": 4025,
      "콴": 4026,
      "콸": 4027,
      "쾅": 4028,
      "쾌": 4029,
      "쾨": 4030,
      "쾰": 4031,
      "쿄": 4032,
      "쿠": 4033,
      "쿡": 4034,
      "쿤": 4035,
      "쿨": 4036,
      "쿰": 4037,
      "쿱": 4038,
      "쿵": 4039,
      "쿼": 4040,
      "퀀": 4041,
      "퀄": 4042,
      "퀘": 4043,
      "퀴": 4044,
      "퀵": 4045,
      "퀸": 4046,
      "퀼": 4047,
      "큐": 4048,
      "큘": 4049,
      "크": 4050,
      "큭": 4051,
      "큰": 4052,
      "클": 4053,
      "큼": 4054,
      "큽": 4055,
      "킁": 4056,
      "키": 4057,
      "킥": 4058,
      "킨": 4059,
      "킬": 4060,
      "킴": 4061,
      "킵": 4062,
      "킷": 4063,
      "킹": 4064,
      "타": 4065,
      "탁": 4066,
      "탄": 4067,
      "탈": 4068,
      "탉": 4069,
      "탐": 4070,
      "탑": 4071,
      "탓": 4072,
      "탔": 4073,
      "탕": 4074,
      "태": 4075,
      "택": 4076,
      "탠": 4077,
      "탤": 4078,
      "탬": 4079,
      "탭": 4080,
      "탯": 4081,
      "탰": 4082,
      "탱": 4083,
      "터": 4084,
      "턱": 4085,
      "턴": 4086,
      "털": 4087,
      "텀": 4088,
      "텁": 4089,
      "텃": 4090,
      "텄": 4091,
      "텅": 4092,
      "테": 4093,
      "텍": 4094,
      "텐": 4095,
      "텔": 4096,
      "템": 4097,
      "텝": 4098,
      "텟": 4099,
      "텡": 4100,
      "텨": 4101,
      "텼": 4102,
      "톈": 4103,
      "토": 4104,
      "톡": 4105,
      "톤": 4106,
      "톨": 4107,
      "톰": 4108,
      "톱": 4109,
      "톳": 4110,
      "통": 4111,
      "퇴": 4112,
      "툇": 4113,
      "투": 4114,
      "툭": 4115,
      "툰": 4116,
      "툴": 4117,
      "툼": 4118,
      "퉁": 4119,
      "퉈": 4120,
      "퉜": 4121,
      "퉤": 4122,
      "튀": 4123,
      "튄": 4124,
      "튈": 4125,
      "튕": 4126,
      "튜": 4127,
      "튠": 4128,
      "튤": 4129,
      "튬": 4130,
      "트": 4131,
      "특": 4132,
      "튼": 4133,
      "튿": 4134,
      "틀": 4135,
      "틈": 4136,
      "틋": 4137,
      "틔": 4138,
      "티": 4139,
      "틱": 4140,
      "틴": 4141,
      "틸": 4142,
      "팀": 4143,
      "팁": 4144,
      "팅": 4145,
      "파": 4146,
      "팍": 4147,
      "팎": 4148,
      "판": 4149,
      "팔": 4150,
      "팜": 4151,
      "팝": 4152,
      "팟": 4153,
      "팠": 4154,
      "팡": 4155,
      "팥": 4156,
      "패": 4157,
      "팩": 4158,
      "팬": 4159,
      "팰": 4160,
      "팸": 4161,
      "팹": 4162,
      "팻": 4163,
      "팽": 4164,
      "퍼": 4165,
      "퍽": 4166,
      "펀": 4167,
      "펄": 4168,
      "펌": 4169,
      "펍": 4170,
      "펐": 4171,
      "펑": 4172,
      "페": 4173,
      "펙": 4174,
      "펜": 4175,
      "펠": 4176,
      "펨": 4177,
      "펩": 4178,
      "펫": 4179,
      "펭": 4180,
      "펴": 4181,
      "편": 4182,
      "펼": 4183,
      "폄": 4184,
      "폈": 4185,
      "평": 4186,
      "폐": 4187,
      "포": 4188,
      "폭": 4189,
      "폰": 4190,
      "폴": 4191,
      "폼": 4192,
      "폿": 4193,
      "퐁": 4194,
      "푀": 4195,
      "표": 4196,
      "푯": 4197,
      "푸": 4198,
      "푹": 4199,
      "푼": 4200,
      "풀": 4201,
      "품": 4202,
      "풋": 4203,
      "풍": 4204,
      "퓌": 4205,
      "퓨": 4206,
      "퓰": 4207,
      "퓸": 4208,
      "프": 4209,
      "픈": 4210,
      "플": 4211,
      "픔": 4212,
      "픕": 4213,
      "피": 4214,
      "픽": 4215,
      "핀": 4216,
      "필": 4217,
      "핌": 4218,
      "핍": 4219,
      "핏": 4220,
      "핑": 4221,
      "하": 4222,
      "학": 4223,
      "한": 4224,
      "할": 4225,
      "핥": 4226,
      "함": 4227,
      "합": 4228,
      "핫": 4229,
      "항": 4230,
      "핳": 4231,
      "해": 4232,
      "핵": 4233,
      "핸": 4234,
      "핼": 4235,
      "햄": 4236,
      "햅": 4237,
      "햇": 4238,
      "했": 4239,
      "행": 4240,
      "햐": 4241,
      "향": 4242,
      "허": 4243,
      "헉": 4244,
      "헌": 4245,
      "헐": 4246,
      "험": 4247,
      "헙": 4248,
      "헛": 4249,
      "헝": 4250,
      "헤": 4251,
      "헥": 4252,
      "헨": 4253,
      "헬": 4254,
      "헴": 4255,
      "헵": 4256,
      "헷": 4257,
      "헹": 4258,
      "헿": 4259,
      "혀": 4260,
      "혁": 4261,
      "현": 4262,
      "혈": 4263,
      "혐": 4264,
      "협": 4265,
      "혓": 4266,
      "혔": 4267,
      "형": 4268,
      "혜": 4269,
      "호": 4270,
      "혹": 4271,
      "혼": 4272,
      "홀": 4273,
      "홈": 4274,
      "홉": 4275,
      "홋": 4276,
      "홍": 4277,
      "홑": 4278,
      "화": 4279,
      "확": 4280,
      "환": 4281,
      "활": 4282,
      "홧": 4283,
      "황": 4284,
      "홰": 4285,
      "홱": 4286,
      "횃": 4287,
      "회": 4288,
      "획": 4289,
      "횟": 4290,
      "횡": 4291,
      "효": 4292,
      "후": 4293,
      "훅": 4294,
      "훈": 4295,
      "훌": 4296,
      "훑": 4297,
      "훔": 4298,
      "훗": 4299,
      "훙": 4300,
      "훠": 4301,
      "훤": 4302,
      "훨": 4303,
      "훼": 4304,
      "휀": 4305,
      "휑": 4306,
      "휘": 4307,
      "휙": 4308,
      "휜": 4309,
      "휠": 4310,
      "휩": 4311,
      "휴": 4312,
      "휼": 4313,
      "흄": 4314,
      "흉": 4315,
      "흐": 4316,
      "흑": 4317,
      "흔": 4318,
      "흘": 4319,
      "흙": 4320,
      "흠": 4321,
      "흡": 4322,
      "흥": 4323,
      "흩": 4324,
      "희": 4325,
      "흰": 4326,
      "히": 4327,
      "힉": 4328,
      "힌": 4329,
      "힐": 4330,
      "힘": 4331,
      "힙": 4332,
      "힛": 4333,
      "힝": 4334,
      "金": 4335,
      "羅": 4336,
      "樂": 4337,
      "落": 4338,
      "亂": 4339,
      "勞": 4340,
      "盧": 4341,
      "老": 4342,
      "魯": 4343,
      "論": 4344,
      "樂": 4345,
      "復": 4346,
      "不": 4347,
      "沈": 4348,
      "兩": 4349,
      "梁": 4350,
      "良": 4351,
      "呂": 4352,
      "女": 4353,
      "歷": 4354,
      "年": 4355,
      "聯": 4356,
      "連": 4357,
      "列": 4358,
      "烈": 4359,
      "靈": 4360,
      "禮": 4361,
      "遼": 4362,
      "龍": 4363,
      "劉": 4364,
      "柳": 4365,
      "流": 4366,
      "留": 4367,
      "類": 4368,
      "六": 4369,
      "陸": 4370,
      "律": 4371,
      "利": 4372,
      "李": 4373,
      "理": 4374,
      "離": 4375,
      "林": 4376,
      "臨": 4377,
      "立": 4378,
      "狀": 4379,
      "茶": 4380,
      "宅": 4381,
      "️": 4382,
      "！": 4383,
      "＂": 4384,
      "＄": 4385,
      "％": 4386,
      "＆": 4387,
      "＇": 4388,
      "（": 4389,
      "）": 4390,
      "＊": 4391,
      "＋": 4392,
      "，": 4393,
      "－": 4394,
      "．": 4395,
      "／": 4396,
      "：": 4397,
      "；": 4398,
      "＜": 4399,
      "＝": 4400,
      "＞": 4401,
      "？": 4402,
      "［": 4403,
      "］": 4404,
      "＿": 4405,
      "ｇ": 4406,
      "ｍ": 4407,
      "ｔ": 4408,
      "｜": 4409,
      "～": 4410,
      "｢": 4411,
      "｣": 4412,
      "･": 4413,
      "￣": 4414,
      "￦": 4415,
      "🌟": 4416,
      "🌸": 4417,
      "🌼": 4418,
      "🌿": 4419,
      "🍃": 4420,
      "🍓": 4421,
      "🍞": 4422,
      "🍫": 4423,
      "🍳": 4424,
      "🍴": 4425,
      "🎁": 4426,
      "🎉": 4427,
      "🎶": 4428,
      "🏃": 4429,
      "🏻": 4430,
      "🏼": 4431,
      "🐶": 4432,
      "🐷": 4433,
      "🐽": 4434,
      "👀": 4435,
      "👈": 4436,
      "👉": 4437,
      "👊": 4438,
      "👋": 4439,
      "👌": 4440,
      "👍": 4441,
      "👏": 4442,
      "👧": 4443,
      "👩": 4444,
      "👶": 4445,
      "👻": 4446,
      "💃": 4447,
      "💓": 4448,
      "💕": 4449,
      "💖": 4450,
      "💗": 4451,
      "💙": 4452,
      "💚": 4453,
      "💛": 4454,
      "💜": 4455,
      "💦": 4456,
      "💪": 4457,
      "📌": 4458,
      "🔥": 4459,
      "🖤": 4460,
      "😀": 4461,
      "😁": 4462,
      "😂": 4463,
      "😃": 4464,
      "😄": 4465,
      "😅": 4466,
      "😆": 4467,
      "😉": 4468,
      "😊": 4469,
      "😋": 4470,
      "😌": 4471,
      "😍": 4472,
      "😎": 4473,
      "😏": 4474,
      "😖": 4475,
      "😘": 4476,
      "😙": 4477,
      "😚": 4478,
      "😛": 4479,
      "😝": 4480,
      "😢": 4481,
      "😥": 4482,
      "😭": 4483,
      "😱": 4484,
      "😳": 4485,
      "🙂": 4486,
      "🙄": 4487,
      "🙆": 4488,
      "🙇": 4489,
      "🙈": 4490,
      "🙊": 4491,
      "🙋": 4492,
      "🙌": 4493,
      "🙏": 4494,
      "🤔": 4495,
      "🤗": 4496,
      "🤣": 4497,
      "🤤": 4498,
      "🤦": 4499,
      "🤩": 4500,
      "🤭": 4501,
      "🥄": 4502,
      "🥰": 4503,
      "🧡": 4504,
      "##n": 4505,
      "##u": 4506,
      "##k": 4507,
      "##o": 4508,
      "##I": 4509,
      "##N": 4510,
      "##a": 4511,
      "##l": 4512,
      "##p": 4513,
      "##h": 4514,
      "##y": 4515,
      "##i": 4516,
      "##s": 4517,
      "##사": 4518,
      "##퇴": 4519,
      "##까": 4520,
      "##지": 4521,
      "##m": 4522,
      "##c": 4523,
      "##t": 4524,
      "##e": 4525,
      "##연": 4526,
      "##계": 4527,
      "##자": 4528,
      "##꾸": 4529,
      "##작": 4530,
      "##구": 4531,
      "##크": 4532,
      "##널": 4533,
      "##넘": 4534,
      "##너": 4535,
      "##무": 4536,
      "##r": 4537,
      "##g": 4538,
      "##ㅋ": 4539,
      "##대": 4540,
      "##북": 4541,
      "##특": 4542,
      "##단": 4543,
      "##이": 4544,
      "##리": 4545,
      "##8": 4546,
      "##0": 4547,
      "##4": 4548,
      "##1": 4549,
      "##9": 4550,
      "##v": 4551,
      "##양": 4552,
      "##산": 4553,
      "##업": 4554,
      "##썩": 4555,
      "##외": 4556,
      "##교": 4557,
      "##ㆍ": 4558,
      "##경": 4559,
      "##찰": 4560,
      "##의": 4561,
      "##문": 4562,
      "##룡": 4563,
      "##℃": 4564,
      "##d": 4565,
      "##덴": 4566,
      "##평": 4567,
      "##시": 4568,
      "##O": 4569,
      "##K": 4570,
      "##A": 4571,
      "##j": 4572,
      "##팔": 4573,
      "##꼭": 4574,
      "##z": 4575,
      "##ㅜ": 4576,
      "##ㅠ": 4577,
      "##현": 4578,
      "##위": 4579,
      "##회": 4580,
      "##복": 4581,
      "##초": 4582,
      "##기": 4583,
      "##에": 4584,
      "##숙": 4585,
      "##희": 4586,
      "##😋": 4587,
      "##건": 4588,
      "##축": 4589,
      "##토": 4590,
      "##목": 4591,
      "##부": 4592,
      "##서": 4593,
      "##w": 4594,
      "##판": 4595,
      "##b": 4596,
      "##달": 4597,
      "##수": 4598,
      "##승": 4599,
      "##ó": 4600,
      "##금": 4601,
      "##성": 4602,
      "##화": 4603,
      "##을": 4604,
      "##5": 4605,
      "##진": 4606,
      "##q": 4607,
      "##P": 4608,
      "##E": 4609,
      "##노": 4610,
      "##야": 4611,
      "##C": 4612,
      "##레": 4613,
      "##역": 4614,
      "##형": 4615,
      "##B": 4616,
      "##F": 4617,
      "##로": 4618,
      "##아": 4619,
      "##티": 4620,
      "##보": 4621,
      "##스": 4622,
      "##니": 4623,
      "##친": 4624,
      "##고": 4625,
      "##려": 4626,
      "##인": 4627,
      "##백": 4628,
      "##제": 4629,
      "##도": 4630,
      "##중": 4631,
      "##R": 4632,
      "##す": 4633,
      "##れ": 4634,
      "##な": 4635,
      "##い": 4636,
      "##말": 4637,
      "##돼": 4638,
      "##테": 4639,
      "##쎄": 4640,
      "##여": 4641,
      "##열": 4642,
      "##탈": 4643,
      "##들": 4644,
      "##헌": 4645,
      "##식": 4646,
      "##할": 4647,
      "##래": 4648,
      "##요": 4649,
      "##군": 4650,
      "##포": 4651,
      "##김": 4652,
      "##명": 4653,
      "##ä": 4654,
      "##f": 4655,
      "##Y": 4656,
      "##M": 4657,
      "##S": 4658,
      "##U": 4659,
      "##버": 4660,
      "##렸": 4661,
      "##나": 4662,
      "##미": 4663,
      "##남": 4664,
      "##농": 4665,
      "##유": 4666,
      "##주": 4667,
      "##T": 4668,
      "##휴": 4669,
      "##원": 4670,
      "##해": 4671,
      "##창": 4672,
      "##언": 4673,
      "##어": 4674,
      "##론": 4675,
      "##과": 4676,
      "##7": 4677,
      "##x": 4678,
      "##ㅈ": 4679,
      "##ㄹ": 4680,
      "##하": 4681,
      "##컬": 4682,
      "##러": 4683,
      "##져": 4684,
      "##면": 4685,
      "##감": 4686,
      "##읍": 4687,
      "##립": 4688,
      "##소": 4689,
      "##편": 4690,
      "##급": 4691,
      "##ا": 4692,
      "##오": 4693,
      "##그": 4694,
      "##르": 4695,
      "##게": 4696,
      "##영": 4697,
      "##손": 4698,
      "##설": 4699,
      "##득": 4700,
      "##키": 4701,
      "##항": 4702,
      "##공": 4703,
      "##전": 4704,
      "##상": 4705,
      "##환": 4706,
      "##결": 4707,
      "##권": 4708,
      "##일": 4709,
      "##본": 4710,
      "##윤": 4711,
      "##정": 4712,
      "##마": 4713,
      "##G": 4714,
      "##학": 4715,
      "##D": 4716,
      "##거": 4717,
      "##싱": 4718,
      "##바": 4719,
      "##홍": 4720,
      "##빈": 4721,
      "##실": 4722,
      "##용": 4723,
      "##о": 4724,
      "##л": 4725,
      "##ь": 4726,
      "##ш": 4727,
      "##е": 4728,
      "##в": 4729,
      "##и": 4730,
      "##с": 4731,
      "##т": 4732,
      "##к": 4733,
      "##망": 4734,
      "##큐": 4735,
      "##렐": 4736,
      "##맴": 4737,
      "##2": 4738,
      "##안": 4739,
      "##찾": 4740,
      "##는": 4741,
      "##다": 4742,
      "##동": 4743,
      "##라": 4744,
      "##카": 4745,
      "##램": 4746,
      "##민": 4747,
      "##디": 4748,
      "##황": 4749,
      "##글": 4750,
      "##잘": 4751,
      "##륙": 4752,
      "##3": 4753,
      "##κ": 4754,
      "##운": 4755,
      "##와": 4756,
      "##짜": 4757,
      "##별": 4758,
      "##음": 4759,
      "##신": 4760,
      "##ㅑ": 4761,
      "##ㅓ": 4762,
      "##ㅕ": 4763,
      "##ㅗ": 4764,
      "##색": 4765,
      "##욕": 4766,
      "##レ": 4767,
      "##イ": 4768,
      "##ー": 4769,
      "##물": 4770,
      "##가": 4771,
      "##데": 4772,
      "##세": 4773,
      "##개": 4774,
      "##혁": 4775,
      "##국": 4776,
      "##호": 4777,
      "##암": 4778,
      "##각": 4779,
      "##늘": 4780,
      "##샛": 4781,
      "##간": 4782,
      "##얼": 4783,
      "##굴": 4784,
      "##파": 4785,
      "##패": 4786,
      "##였": 4787,
      "##모": 4788,
      "##터": 4789,
      "##쇼": 4790,
      "##람": 4791,
      "##L": 4792,
      "##청": 4793,
      "##장": 4794,
      "##등": 4795,
      "##취": 4796,
      "##락": 4797,
      "##육": 4798,
      "##풍": 4799,
      "##습": 4800,
      "##범": 4801,
      "##셉": 4802,
      "##통": 4803,
      "##령": 4804,
      "##선": 4805,
      "##약": 4806,
      "##력": 4807,
      "##체": 4808,
      "##적": 4809,
      "##료": 4810,
      "##재": 4811,
      "##님": 4812,
      "##두": 4813,
      "##함": 4814,
      "##쳐": 4815,
      "##ㅅ": 4816,
      "##타": 4817,
      "##극": 4818,
      "##우": 4819,
      "##당": 4820,
      "##행": 4821,
      "##관": 4822,
      "##W": 4823,
      "##る": 4824,
      "##よ": 4825,
      "##う": 4826,
      "##に": 4827,
      "##든": 4828,
      "##택": 4829,
      "##만": 4830,
      "##천": 4831,
      "##랑": 4832,
      "##느": 4833,
      "##트": 4834,
      "##둥": 4835,
      "##내": 4836,
      "##한": 4837,
      "##분": 4838,
      "##은": 4839,
      "##조": 4840,
      "##댄": 4841,
      "##츠": 4842,
      "##좌": 4843,
      "##쯔": 4844,
      "##순": 4845,
      "##💓": 4846,
      "##ㅏ": 4847,
      "##랗": 4848,
      "##ㅎ": 4849,
      "##덕": 4850,
      "##울": 4851,
      "##드": 4852,
      "##광": 4853,
      "##곡": 4854,
      "##례": 4855,
      "##병": 4856,
      "##살": 4857,
      "##の": 4858,
      "##は": 4859,
      "##ト": 4860,
      "##チ": 4861,
      "##😭": 4862,
      "##😢": 4863,
      "##출": 4864,
      "##날": 4865,
      "##밤": 4866,
      "##땅": 4867,
      "##콩": 4868,
      "##같": 4869,
      "##털": 4870,
      "##벤": 4871,
      "##처": 4872,
      "##입": 4873,
      "##를": 4874,
      "##골": 4875,
      "##집": 4876,
      "##ā": 4877,
      "##ī": 4878,
      "##봉": 4879,
      "##빌": 4880,
      "##악": 4881,
      "##듬": 4882,
      "##폭": 4883,
      "##렌": 4884,
      "##치": 4885,
      "##종": 4886,
      "##협": 4887,
      "##규": 4888,
      "##찍": 4889,
      "##준": 4890,
      "##박": 4891,
      "##접": 4892,
      "##효": 4893,
      "##린": 4894,
      "##석": 4895,
      "##옥": 4896,
      "##최": 4897,
      "##질": 4898,
      "##략": 4899,
      "##논": 4900,
      "##쟁": 4901,
      "##H": 4902,
      "##왔": 4903,
      "##변": 4904,
      "##근": 4905,
      "##방": 4906,
      "##낭": 4907,
      "##떠": 4908,
      "##д": 4909,
      "##н": 4910,
      "##а": 4911,
      "##я": 4912,
      "##녹": 4913,
      "##예": 4914,
      "##완": 4915,
      "##왕": 4916,
      "##태": 4917,
      "##발": 4918,
      "##샨": 4919,
      "##배": 4920,
      "##독": 4921,
      "##も": 4922,
      "##é": 4923,
      "##강": 4924,
      "##직": 4925,
      "##응": 4926,
      "##옌": 4927,
      "##ㅌ": 4928,
      "##ㄱ": 4929,
      "##ㄷ": 4930,
      "##폐": 4931,
      "##합": 4932,
      "##융": 4933,
      "##젖": 4934,
      "##반": 4935,
      "##혼": 4936,
      "##ω": 4937,
      "##π": 4938,
      "##α": 4939,
      "##σ": 4940,
      "##ι": 4941,
      "##ς": 4942,
      "##멀": 4943,
      "##막": 4944,
      "##피": 4945,
      "##벅": 4946,
      "##책": 4947,
      "##임": 4948,
      "##샤": 4949,
      "##템": 4950,
      "##셰": 4951,
      "##프": 4952,
      "##겅": 4953,
      "##뽑": 4954,
      "##럽": 4955,
      "##첼": 4956,
      "##ㅊ": 4957,
      "##Z": 4958,
      "##V": 4959,
      "##액": 4960,
      "##6": 4961,
      "##생": 4962,
      "##활": 4963,
      "##험": 4964,
      "##탕": 4965,
      "##칼": 4966,
      "##쿠": 4967,
      "##코": 4968,
      "##멤": 4969,
      "##롱": 4970,
      "##턴": 4971,
      "##웅": 4972,
      "##네": 4973,
      "##란": 4974,
      "##텔": 4975,
      "##ん": 4976,
      "##か": 4977,
      "##온": 4978,
      "##꿈": 4979,
      "##꽃": 4980,
      "##リ": 4981,
      "##ス": 4982,
      "##법": 4983,
      "##×": 4984,
      "##💚": 4985,
      "##💛": 4986,
      "##엥": 4987,
      "##비": 4988,
      "##투": 4989,
      "##며": 4990,
      "##증": 4991,
      "##율": 4992,
      "##괴": 4993,
      "##철": 4994,
      "##몰": 4995,
      "##필": 4996,
      "##핀": 4997,
      "##길": 4998,
      "##잔": 4999,
      "##표": 5000,
      "##페": 5001,
      "##🙏": 5002,
      "##🏻": 5003,
      "##🙇": 5004,
      "##술": 5005,
      "##귀": 5006,
      "##워": 5007,
      "##묘": 5008,
      "##엽": 5009,
      "##송": 5010,
      "##향": 5011,
      "##푸": 5012,
      "##클": 5013,
      "##롭": 5014,
      "##묵": 5015,
      "##팡": 5016,
      "##블": 5017,
      "##루": 5018,
      "##녀": 5019,
      "##매": 5020,
      "##누": 5021,
      "##긴": 5022,
      "##윙": 5023,
      "##ㅇ": 5024,
      "##춰": 5025,
      "##ㅔ": 5026,
      "##툇": 5027,
      "##ж": 5028,
      "##넷": 5029,
      "##몬": 5030,
      "##탑": 5031,
      "##추": 5032,
      "##찬": 5033,
      "##혜": 5034,
      "##앙": 5035,
      "##름": 5036,
      "##때": 5037,
      "##탁": 5038,
      "##꿉": 5039,
      "##난": 5040,
      "##흥": 5041,
      "##족": 5042,
      "##림": 5043,
      "##징": 5044,
      "##된": 5045,
      "##ロ": 5046,
      "##얘": 5047,
      "##줄": 5048,
      "##렴": 5049,
      "##슐": 5050,
      "##격": 5051,
      "##혹": 5052,
      "##럼": 5053,
      "##볼": 5054,
      "##류": 5055,
      "##훤": 5056,
      "##으": 5057,
      "##콤": 5058,
      "##룹": 5059,
      "##😂": 5060,
      "##몇": 5061,
      "##벽": 5062,
      "##련": 5063,
      "##존": 5064,
      "##새": 5065,
      "##볐": 5066,
      "##р": 5067,
      "##심": 5068,
      "##휘": 5069,
      "##었": 5070,
      "##헨": 5071,
      "##삼": 5072,
      "##닥": 5073,
      "##릴": 5074,
      "##ㅃ": 5075,
      "##엠": 5076,
      "##욱": 5077,
      "##싶": 5078,
      "##맨": 5079,
      "##즈": 5080,
      "##허": 5081,
      "##절": 5082,
      "##ㅍ": 5083,
      "##ᄒ": 5084,
      "##á": 5085,
      "##ラ": 5086,
      "##깔": 5087,
      "##충": 5088,
      "##ㅂ": 5089,
      "##받": 5090,
      "##았": 5091,
      "##짓": 5092,
      "##땡": 5093,
      "##뽕": 5094,
      "##톱": 5095,
      "##팅": 5096,
      "##퓨": 5097,
      "##압": 5098,
      "##움": 5099,
      "##좋": 5100,
      "##겟": 5101,
      "##룬": 5102,
      "##읽": 5103,
      "##애": 5104,
      "##션": 5105,
      "##흠": 5106,
      "##ч": 5107,
      "##ы": 5108,
      "##념": 5109,
      "##닭": 5110,
      "##갈": 5111,
      "##밥": 5112,
      "##씨": 5113,
      "##염": 5114,
      "##섭": 5115,
      "##춘": 5116,
      "##채": 5117,
      "##놀": 5118,
      "##й": 5119,
      "##톤": 5120,
      "##점": 5121,
      "##틴": 5122,
      "##🥄": 5123,
      "##💙": 5124,
      "##ü": 5125,
      "##메": 5126,
      "##케": 5127,
      "##텁": 5128,
      "##п": 5129,
      "##Q": 5130,
      "##륜": 5131,
      "##차": 5132,
      "##검": 5133,
      "##こ": 5134,
      "##🤩": 5135,
      "##빠": 5136,
      "##꿀": 5137,
      "##맛": 5138,
      "##엄": 5139,
      "##カ": 5140,
      "##틀": 5141,
      "##랜": 5142,
      "##웨": 5143,
      "##척": 5144,
      "##릉": 5145,
      "##커": 5146,
      "##찌": 5147,
      "##낙": 5148,
      "##팀": 5149,
      "##엘": 5150,
      "##엔": 5151,
      "##핑": 5152,
      "##ル": 5153,
      "##🙆": 5154,
      "##칸": 5155,
      "##졸": 5156,
      "##품": 5157,
      "##꾼": 5158,
      "##슈": 5159,
      "##총": 5160,
      "##년": 5161,
      "##층": 5162,
      "##껄": 5163,
      "##싯": 5164,
      "##у": 5165,
      "##м": 5166,
      "##플": 5167,
      "##뜻": 5168,
      "##딘": 5169,
      "##월": 5170,
      "##따": 5171,
      "##J": 5172,
      "##앰": 5173,
      "##쓰": 5174,
      "##🥰": 5175,
      "##🤭": 5176,
      "##뢰": 5177,
      "##솜": 5178,
      "##봄": 5179,
      "##담": 5180,
      "##랄": 5181,
      "##듯": 5182,
      "##딩": 5183,
      "##붙": 5184,
      "##🤣": 5185,
      "##😁": 5186,
      "##💪": 5187,
      "##머": 5188,
      "##되": 5189,
      "##엇": 5190,
      "##숭": 5191,
      "##빛": 5192,
      "##햇": 5193,
      "##견": 5194,
      "##춤": 5195,
      "##속": 5196,
      "##マ": 5197,
      "##ン": 5198,
      "##ㅡ": 5199,
      "##빨": 5200,
      "##맞": 5201,
      "##テ": 5202,
      "##익": 5203,
      "##앞": 5204,
      "##알": 5205,
      "##ㅁ": 5206,
      "##è": 5207,
      "##런": 5208,
      "##넨": 5209,
      "##뽀": 5210,
      "##펀": 5211,
      "##꺄": 5212,
      "##록": 5213,
      "##꺼": 5214,
      "##졌": 5215,
      "##멘": 5216,
      "##저": 5217,
      "##괘": 5218,
      "##뜨": 5219,
      "##른": 5220,
      "##폰": 5221,
      "##능": 5222,
      "##펨": 5223,
      "##ㅐ": 5224,
      "##눠": 5225,
      "##X": 5226,
      "##앗": 5227,
      "##확": 5228,
      "##😍": 5229,
      "##👍": 5230,
      "##◀": 5231,
      "##し": 5232,
      "##섬": 5233,
      "##끄": 5234,
      "##さ": 5235,
      "##た": 5236,
      "##잡": 5237,
      "##탄": 5238,
      "##А": 5239,
      "##К": 5240,
      "##꿍": 5241,
      "##맥": 5242,
      "##던": 5243,
      "##∼": 5244,
      "##뚝": 5245,
      "##착": 5246,
      "##죄": 5247,
      "##컨": 5248,
      "##몽": 5249,
      "##끔": 5250,
      "##늉": 5251,
      "##삭": 5252,
      "##불": 5253,
      "##쪼": 5254,
      "##롬": 5255,
      "##펜": 5256,
      "##ç": 5257,
      "##흐": 5258,
      "##웃": 5259,
      "##촌": 5260,
      "##뭄": 5261,
      "##Ⅰ": 5262,
      "##Ⅱ": 5263,
      "##쥐": 5264,
      "##혀": 5265,
      "##걱": 5266,
      "##렬": 5267,
      "##ρ": 5268,
      "##났": 5269,
      "##꼴": 5270,
      "##베": 5271,
      "##⠀": 5272,
      "##큼": 5273,
      "##ц": 5274,
      "##ニ": 5275,
      "##￦": 5276,
      "##뫼": 5277,
      "##냐": 5278,
      "##욥": 5279,
      "##죽": 5280,
      "##ο": 5281,
      "##τ": 5282,
      "##ν": 5283,
      "##량": 5284,
      "##걸": 5285,
      "##렉": 5286,
      "##갓": 5287,
      "##히": 5288,
      "##🖤": 5289,
      "##あ": 5290,
      "##り": 5291,
      "##が": 5292,
      "##と": 5293,
      "##だ": 5294,
      "##꾀": 5295,
      "##꼬": 5296,
      "##😛": 5297,
      "##센": 5298,
      "##ㄲ": 5299,
      "##쥬": 5300,
      "##뮤": 5301,
      "##브": 5302,
      "##겠": 5303,
      "##숀": 5304,
      "##먼": 5305,
      "##윽": 5306,
      "##촉": 5307,
      "##긿": 5308,
      "##맵": 5309,
      "##く": 5310,
      "##슬": 5311,
      "##륨": 5312,
      "##😄": 5313,
      "##촨": 5314,
      "##긔": 5315,
      "##흔": 5316,
      "##θ": 5317,
      "##쌈": 5318,
      "##뼈": 5319,
      "##뷰": 5320,
      "##뱅": 5321,
      "##💕": 5322,
      "##올": 5323,
      "##돈": 5324,
      "##춧": 5325,
      "##슨": 5326,
      "##х": 5327,
      "##놈": 5328,
      "##흑": 5329,
      "##셀": 5330,
      "##듈": 5331,
      "##듀": 5332,
      "##후": 5333,
      "##쾌": 5334,
      "##쉬": 5335,
      "##튼": 5336,
      "##답": 5337,
      "##팟": 5338,
      "##훈": 5339,
      "##😖": 5340,
      "##겨": 5341,
      "##곳": 5342,
      "##덤": 5343,
      "##럭": 5344,
      "##옵": 5345,
      "##셔": 5346,
      "##줬": 5347,
      "##돌": 5348,
      "##덧": 5349,
      "##솔": 5350,
      "##깅": 5351,
      "##첨": 5352,
      "##틸": 5353,
      "##빰": 5354,
      "##벌": 5355,
      "##짐": 5356,
      "##써": 5357,
      "##끈": 5358,
      "##っ": 5359,
      "##랍": 5360,
      "##먹": 5361,
      "##Ⅴ": 5362,
      "##띠": 5363,
      "##냄": 5364,
      "##랫": 5365,
      "##엉": 5366,
      "##짤": 5367,
      "##컴": 5368,
      "##팩": 5369,
      "##밀": 5370,
      "##번": 5371,
      "##엡": 5372,
      "##눈": 5373,
      "##덜": 5374,
      "##냥": 5375,
      "##떼": 5376,
      "##ㄴ": 5377,
      "##침": 5378,
      "##쁘": 5379,
      "##납": 5380,
      "##б": 5381,
      "##빗": 5382,
      "##뤄": 5383,
      "##を": 5384,
      "##け": 5385,
      "##캐": 5386,
      "##낄": 5387,
      "##맹": 5388,
      "##궁": 5389,
      "##튠": 5390,
      "##률": 5391,
      "##³": 5392,
      "##○": 5393,
      "##샬": 5394,
      "##😘": 5395,
      "##🤗": 5396,
      "##켜": 5397,
      "##🧡": 5398,
      "##뇨": 5399,
      "##더": 5400,
      "##쌀": 5401,
      "##쌍": 5402,
      "##빡": 5403,
      "##듣": 5404,
      "##댈": 5405,
      "##▪": 5406,
      "##②": 5407,
      "##③": 5408,
      "##궤": 5409,
      "##펠": 5410,
      "##했": 5411,
      "##웠": 5412,
      "##😆": 5413,
      "##💖": 5414,
      "##쟤": 5415,
      "##곤": 5416,
      "##👊": 5417,
      "##칙": 5418,
      "##깨": 5419,
      "##つ": 5420,
      "##렁": 5421,
      "##참": 5422,
      "##낌": 5423,
      "##없": 5424,
      "##늑": 5425,
      "##랭": 5426,
      "##닛": 5427,
      "##링": 5428,
      "##닙": 5429,
      "##랩": 5430,
      "##옷": 5431,
      "##끝": 5432,
      "##또": 5433,
      "##졋": 5434,
      "##콜": 5435,
      "##잉": 5436,
      "##넛": 5437,
      "##델": 5438,
      "##곱": 5439,
      "##렛": 5440,
      "##줘": 5441,
      "##옹": 5442,
      "##팽": 5443,
      "##칠": 5444,
      "##■": 5445,
      "##죠": 5446,
      "##측": 5447,
      "##벙": 5448,
      "##돔": 5449,
      "##뉴": 5450,
      "##킨": 5451,
      "##잇": 5452,
      "##싼": 5453,
      "##💗": 5454,
      "##ム": 5455,
      "##シ": 5456,
      "##짬": 5457,
      "##잎": 5458,
      "##즙": 5459,
      "##냉": 5460,
      "##🎉": 5461,
      "##🍫": 5462,
      "##덥": 5463,
      "##힘": 5464,
      "##빙": 5465,
      "##뚠": 5466,
      "##닐": 5467,
      "##겐": 5468,
      "##칭": 5469,
      "##굽": 5470,
      "##틱": 5471,
      "##タ": 5472,
      "##및": 5473,
      "##⅓": 5474,
      "##뭇": 5475,
      "##탔": 5476,
      "##늄": 5477,
      "##놋": 5478,
      "##벼": 5479,
      "##헤": 5480,
      "##핵": 5481,
      "##킴": 5482,
      "##캘": 5483,
      "##멩": 5484,
      "##획": 5485,
      "##퀴": 5486,
      "##있": 5487,
      "##랙": 5488,
      "##냈": 5489,
      "##캬": 5490,
      "##🐶": 5491,
      "##え": 5492,
      "##똘": 5493,
      "##β": 5494,
      "##뻘": 5495,
      "##き": 5496,
      "##ち": 5497,
      "##お": 5498,
      "##ま": 5499,
      "##밖": 5500,
      "##👏": 5501,
      "##룩": 5502,
      "##ら": 5503,
      "##キ": 5504,
      "##횡": 5505,
      "##찮": 5506,
      "##혈": 5507,
      "##좀": 5508,
      "##즘": 5509,
      "##캉": 5510,
      "##것": 5511,
      "##즉": 5512,
      "##て": 5513,
      "##닝": 5514,
      "##윷": 5515,
      "##з": 5516,
      "##젤": 5517,
      "##켓": 5518,
      "##콴": 5519,
      "##긋": 5520,
      "##퍼": 5521,
      "##フ": 5522,
      "##멜": 5523,
      "##갖": 5524,
      "##윳": 5525,
      "##쩌": 5526,
      "##🍞": 5527,
      "##メ": 5528,
      "##헝": 5529,
      "##г": 5530,
      "##첩": 5531,
      "##떻": 5532,
      "##😝": 5533,
      "##홈": 5534,
      "##핸": 5535,
      "##께": 5536,
      "##쇠": 5537,
      "##겄": 5538,
      "##닼": 5539,
      "##😚": 5540,
      "##😙": 5541,
      "##둘": 5542,
      "##왈": 5543,
      "##낼": 5544,
      "##됐": 5545,
      "##ぬ": 5546,
      "##될": 5547,
      "##껴": 5548,
      "##ッ": 5549,
      "##쪽": 5550,
      "##쫌": 5551,
      "##뚜": 5552,
      "##즐": 5553,
      "##🏼": 5554,
      "##ö": 5555,
      "##で": 5556,
      "##넹": 5557,
      "##팬": 5558,
      "##😅": 5559,
      "##🙊": 5560,
      "##캠": 5561,
      "##뻐": 5562,
      "##쩍": 5563,
      "##갑": 5564,
      "##겁": 5565,
      "##늠": 5566,
      "##짝": 5567,
      "##👌": 5568,
      "##억": 5569,
      "##λ": 5570,
      "##뚱": 5571,
      "##닉": 5572,
      "##톰": 5573,
      "##뇌": 5574,
      "##ᆞ": 5575,
      "##벨": 5576,
      "##객": 5577,
      "##딸": 5578,
      "##엑": 5579,
      "##몸": 5580,
      "##균": 5581,
      "##뱌": 5582,
      "##젠": 5583,
      "##뿌": 5584,
      "##녜": 5585,
      "##휠": 5586,
      "##멸": 5587,
      "##컵": 5588,
      "##ل": 5589,
      "##릿": 5590,
      "##짚": 5591,
      "##ㅣ": 5592,
      "##ブ": 5593,
      "##ク": 5594,
      "##꾹": 5595,
      "##못": 5596,
      "##룸": 5597,
      "##괜": 5598,
      "##쉽": 5599,
      "##릭": 5600,
      "##탱": 5601,
      "##흡": 5602,
      "##릇": 5603,
      "##ε": 5604,
      "##홀": 5605,
      "##앜": 5606,
      "##튜": 5607,
      "##í": 5608,
      "##🌟": 5609,
      "##쿄": 5610,
      "##젝": 5611,
      "##빅": 5612,
      "##퉁": 5613,
      "##봐": 5614,
      "##ィ": 5615,
      "##깐": 5616,
      "##눗": 5617,
      "##뭉": 5618,
      "##깡": 5619,
      "##롯": 5620,
      "##엌": 5621,
      "##탐": 5622,
      "##わ": 5623,
      "##캔": 5624,
      "##η": 5625,
      "##ㅛ": 5626,
      "##윌": 5627,
      "##텍": 5628,
      "##🔥": 5629,
      "##👈": 5630,
      "##켄": 5631,
      "##😊": 5632,
      "##😱": 5633,
      "##γ": 5634,
      "##깻": 5635,
      "##엣": 5636,
      "##닫": 5637,
      "##곽": 5638,
      "##빼": 5639,
      "##늬": 5640,
      "##삿": 5641,
      "##캇": 5642,
      "##땃": 5643,
      "##😌": 5644,
      "##곰": 5645,
      "##겸": 5646,
      "##밑": 5647,
      "##샘": 5648,
      "##눔": 5649,
      "##넬": 5650,
      "##셸": 5651,
      "##콘": 5652,
      "##뒷": 5653,
      "##훌": 5654,
      "##홧": 5655,
      "##👉": 5656,
      "##톨": 5657,
      "##뗄": 5658,
      "##칵": 5659,
      "##랬": 5660,
      "##몫": 5661,
      "##앵": 5662,
      "##뜩": 5663,
      "##쫀": 5664,
      "##툭": 5665,
      "##셨": 5666,
      "##쳣": 5667,
      "##쿵": 5668,
      "##픽": 5669,
      "##겼": 5670,
      "##ᆡ": 5671,
      "##💃": 5672,
      "##맙": 5673,
      "##썹": 5674,
      "##끌": 5675,
      "##잖": 5676,
      "##왜": 5677,
      "##쟈": 5678,
      "##궐": 5679,
      "##쇄": 5680,
      "##둔": 5681,
      "##캄": 5682,
      "##😀": 5683,
      "##퀸": 5684,
      "##👋": 5685,
      "##왓": 5686,
      "##챠": 5687,
      "##힐": 5688,
      "##♪": 5689,
      "##🙈": 5690,
      "##Р": 5691,
      "##얄": 5692,
      "##욬": 5693,
      "##귤": 5694,
      "##뭐": 5695,
      "##㎡": 5696,
      "##셜": 5697,
      "##풀": 5698,
      "##럴": 5699,
      "##쁠": 5700,
      "##십": 5701,
      "##ド": 5702,
      "##헛": 5703,
      "##많": 5704,
      "##놓": 5705,
      "##둠": 5706,
      "##쭐": 5707,
      "##칩": 5708,
      "##댔": 5709,
      "##므": 5710,
      "##켈": 5711,
      "##😃": 5712,
      "##켰": 5713,
      "##뭔": 5714,
      "##や": 5715,
      "##グ": 5716,
      "##쭝": 5717,
      "##섯": 5718,
      "##밭": 5719,
      "##훼": 5720,
      "##쑨": 5721,
      "##턱": 5722,
      "##푼": 5723,
      "##웡": 5724,
      "##옴": 5725,
      "##톈": 5726,
      "##δ": 5727,
      "##☆": 5728,
      "##뷸": 5729,
      "##à": 5730,
      "##텅": 5731,
      "##둑": 5732,
      "##븐": 5733,
      "##삽": 5734,
      "##롤": 5735,
      "##믹": 5736,
      "##♩": 5737,
      "##♬": 5738,
      "##톡": 5739,
      "##떨": 5740,
      "##밴": 5741,
      "##킵": 5742,
      "##폼": 5743,
      "##앨": 5744,
      "##💜": 5745,
      "##픈": 5746,
      "##み": 5747,
      "##뻬": 5748,
      "##궈": 5749,
      "##뎅": 5750,
      "##즁": 5751,
      "##😥": 5752,
      "##뿐": 5753,
      "##짱": 5754,
      "##숍": 5755,
      "##멈": 5756,
      "##곁": 5757,
      "##킷": 5758,
      "##๑": 5759,
      "##🎁": 5760,
      "##흘": 5761,
      "##잠": 5762,
      "##씬": 5763,
      "##밍": 5764,
      "##▶": 5765,
      "##쵸": 5766,
      "##â": 5767,
      "##갔": 5768,
      "##튀": 5769,
      "##똥": 5770,
      "##찔": 5771,
      "##볶": 5772,
      "##높": 5773,
      "##깽": 5774,
      "##🍴": 5775,
      "##숩": 5776,
      "##뀨": 5777,
      "##뉘": 5778,
      "##슘": 5779,
      "##쓴": 5780,
      "##💦": 5781,
      "##헿": 5782,
      "##띤": 5783,
      "##랏": 5784,
      "##밸": 5785,
      "##뱃": 5786,
      "##핳": 5787,
      "##갤": 5788,
      "##붓": 5789,
      "##꿰": 5790,
      "##뚫": 5791,
      "##퀘": 5792,
      "##낑": 5793,
      "##텐": 5794,
      "##÷": 5795,
      "##킬": 5796,
      "##뷔": 5797,
      "##픔": 5798,
      "##샹": 5799,
      "##ジ": 5800,
      "##릅": 5801,
      "##μ": 5802,
      "##캅": 5803,
      "##됨": 5804,
      "##댜": 5805,
      "##앱": 5806,
      "##빔": 5807,
      "##싸": 5808,
      "##빵": 5809,
      "##첸": 5810,
      "##삥": 5811,
      "##폴": 5812,
      "##딜": 5813,
      "##씩": 5814,
      "##뇽": 5815,
      "##짖": 5816,
      "##퀀": 5817,
      "##뿔": 5818,
      "##コ": 5819,
      "##햄": 5820,
      "##ㅆ": 5821,
      "##믿": 5822,
      "##틈": 5823,
      "##콧": 5824,
      "##멍": 5825,
      "##냠": 5826,
      "##싹": 5827,
      "##킥": 5828,
      "##🌿": 5829,
      "##띵": 5830,
      "##쭈": 5831,
      "##굉": 5832,
      "##뿅": 5833,
      "##뛰": 5834,
      "##셋": 5835,
      "##⊙": 5836,
      "##떳": 5837,
      "##윗": 5838,
      "##끼": 5839,
      "##댓": 5840,
      "##㎎": 5841,
      "##헐": 5842,
      "##삐": 5843,
      "##ㅉ": 5844,
      "##뒤": 5845,
      "##혔": 5846,
      "##윈": 5847,
      "##킹": 5848,
      "##훙": 5849,
      "##덩": 5850,
      "##떄": 5851,
      "##ア": 5852,
      "##흉": 5853,
      "##솟": 5854,
      "##😳": 5855,
      "##ｍ": 5856,
      "##ｔ": 5857,
      "##꽁": 5858,
      "##🍃": 5859,
      "##츄": 5860,
      "##쩔": 5861,
      "##힝": 5862,
      "##뇸": 5863,
      "##닌": 5864,
      "##봇": 5865,
      "##잣": 5866,
      "##푹": 5867,
      "##쌤": 5868,
      "##럿": 5869,
      "##셈": 5870,
      "##빤": 5871,
      "##└": 5872,
      "##탠": 5873,
      "##헙": 5874,
      "##뻑": 5875,
      "##촬": 5876,
      "##셩": 5877,
      "##걀": 5878,
      "##헬": 5879,
      "##긁": 5880,
      "##떡": 5881,
      "##뎌": 5882,
      "##싫": 5883,
      "##멱": 5884,
      "##🌼": 5885,
      "##붕": 5886,
      "##꺾": 5887,
      "##댁": 5888,
      "##맘": 5889,
      "##볏": 5890,
      "##️": 5891,
      "##🙄": 5892,
      "##챈": 5893,
      "##탤": 5894,
      "##봣": 5895,
      "##찜": 5896,
      "##깍": 5897,
      "##얀": 5898,
      "##쫓": 5899,
      "##웍": 5900,
      "##좃": 5901,
      "##옆": 5902,
      "##샵": 5903,
      "##젯": 5904,
      "##륵": 5905,
      "##꿨": 5906,
      "##슴": 5907,
      "##렷": 5908,
      "##믄": 5909,
      "##녕": 5910,
      "##젊": 5911,
      "##픕": 5912,
      "##♥": 5913,
      "##♡": 5914,
      "##옮": 5915,
      "##깃": 5916,
      "##쏘": 5917,
      "##갸": 5918,
      "##🍓": 5919,
      "##죗": 5920,
      "##둬": 5921,
      "##뜸": 5922,
      "##👻": 5923,
      "##웟": 5924,
      "##꿔": 5925,
      "##귄": 5926,
      "##ポ": 5927,
      "##훔": 5928,
      "##얌": 5929,
      "##É": 5930,
      "##앤": 5931,
      "##째": 5932,
      "##값": 5933,
      "##펙": 5934,
      "##렵": 5935,
      "##꼰": 5936,
      "##흙": 5937,
      "##늦": 5938,
      "##땐": 5939,
      "##딱": 5940,
      "##붐": 5941,
      "##┃": 5942,
      "##갗": 5943,
      "##쳤": 5944,
      "##덮": 5945,
      "##괄": 5946,
      "##춥": 5947,
      "##꿇": 5948,
      "##겜": 5949,
      "##ⓐ": 5950,
      "##⑷": 5951,
      "##왑": 5952,
      "##쮸": 5953,
      "##졍": 5954,
      "##쩨": 5955,
      "##똑": 5956,
      "##잼": 5957,
      "##숴": 5958,
      "##굿": 5959,
      "##퐁": 5960,
      "##쟝": 5961,
      "##벡": 5962,
      "##닦": 5963,
      "##쑤": 5964,
      "##튬": 5965,
      "##닷": 5966,
      "##●": 5967,
      "##⋅": 5968,
      "##④": 5969,
      "##넣": 5970,
      "##췌": 5971,
      "##و": 5972,
      "##숲": 5973,
      "##쁨": 5974,
      "##🌸": 5975,
      "##펑": 5976,
      "##슷": 5977,
      "##윅": 5978,
      "##쿨": 5979,
      "##긍": 5980,
      "##뜰": 5981,
      "##겋": 5982,
      "##넥": 5983,
      "##훅": 5984,
      "##쥔": 5985,
      "##훠": 5986,
      "##횟": 5987,
      "##뿜": 5988,
      "##큰": 5989,
      "##넌": 5990,
      "##👩": 5991,
      "##팝": 5992,
      "##뎃": 5993,
      "##낸": 5994,
      "##댕": 5995,
      "##맷": 5996,
      "##넼": 5997,
      "##맡": 5998,
      "##꽂": 5999,
      "##죤": 6000,
      "##룰": 6001,
      "##껏": 6002,
      "##밌": 6003,
      "##±": 6004,
      "##꽈": 6005,
      "##쉼": 6006,
      "##렇": 6007,
      "##ෆ": 6008,
      "##쭉": 6009,
      "##섹": 6010,
      "##튕": 6011,
      "##좡": 6012,
      "##멋": 6013,
      "##찻": 6014,
      "##쉰": 6015,
      "##홉": 6016,
      "##랴": 6017,
      "##쉐": 6018,
      "##삯": 6019,
      "##않": 6020,
      "##앉": 6021,
      "##밧": 6022,
      "##→": 6023,
      "##㈏": 6024,
      "##㈐": 6025,
      "##㈑": 6026,
      "##뱀": 6027,
      "##눕": 6028,
      "##줌": 6029,
      "##쫑": 6030,
      "##쑹": 6031,
      "##뼛": 6032,
      "##＋": 6033,
      "##꼈": 6034,
      "##뮌": 6035,
      "##즌": 6036,
      "##넙": 6037,
      "##펭": 6038,
      "##멕": 6039,
      "##뒀": 6040,
      "##곶": 6041,
      "##씀": 6042,
      "##잤": 6043,
      "##펄": 6044,
      "##갱": 6045,
      "##췄": 6046,
      "##엊": 6047,
      "##룽": 6048,
      "##웁": 6049,
      "##◆": 6050,
      "##쪄": 6051,
      "##🤤": 6052,
      "##눙": 6053,
      "##껌": 6054,
      "##Ⅳ": 6055,
      "##놔": 6056,
      "##엿": 6057,
      "##갯": 6058,
      "##꿩": 6059,
      "##슭": 6060,
      "##˘": 6061,
      "##́": 6062,
      "##렀": 6063,
      "##⑤": 6064,
      "##핏": 6065,
      "##솝": 6066,
      "##졔": 6067,
      "##녔": 6068,
      "##렝": 6069,
      "##쑥": 6070,
      "##엮": 6071,
      "##눅": 6072,
      "##캡": 6073,
      "##뻣": 6074,
      "##뽈": 6075,
      "##켠": 6076,
      "##듭": 6077,
      "##걍": 6078,
      "##쌌": 6079,
      "##👶": 6080,
      "##👧": 6081,
      "##😉": 6082,
      "##촘": 6083,
      "##톳": 6084,
      "##녁": 6085,
      "##릎": 6086,
      "##👀": 6087,
      "##팥": 6088,
      "##탬": 6089,
      "##첫": 6090,
      "##곗": 6091,
      "##둣": 6092,
      "##²": 6093,
      "##쩜": 6094,
      "##딨": 6095,
      "##삶": 6096,
      "##밋": 6097,
      "##깊": 6098,
      "##뾰": 6099,
      "##썽": 6100,
      "##쨔": 6101,
      "##굼": 6102,
      "##쩐": 6103,
      "##끗": 6104,
      "##챔": 6105,
      "##돗": 6106,
      "##끊": 6107,
      "##씻": 6108,
      "##흰": 6109,
      "##쿤": 6110,
      "##툰": 6111,
      "##꽝": 6112,
      "##뀌": 6113,
      "##렙": 6114,
      "##좆": 6115,
      "##녘": 6116,
      "##얍": 6117,
      "##ノ": 6118,
      "##얏": 6119,
      "##딤": 6120,
      "##뺌": 6121,
      "##С": 6122,
      "##쏴": 6123,
      "##랐": 6124,
      "##쯧": 6125,
      "##쌓": 6126,
      "##믈": 6127,
      "##□": 6128,
      "##껍": 6129,
      "##🙌": 6130,
      "##🤦": 6131,
      "##샴": 6132,
      "##펴": 6133,
      "##쩝": 6134,
      "##촐": 6135,
      "##봅": 6136,
      "##젓": 6137,
      "##뽁": 6138,
      "##껑": 6139,
      "##쁜": 6140,
      "##밝": 6141,
      "##뵈": 6142,
      "##혐": 6143,
      "##숨": 6144,
      "##뤼": 6145,
      "##딕": 6146,
      "##샷": 6147,
      "##뮨": 6148,
      "##낀": 6149,
      "##섞": 6150,
      "##㉣": 6151,
      "##넓": 6152,
      "##▼": 6153,
      "##↓": 6154,
      "##←": 6155,
      "##😎": 6156,
      "##콕": 6157,
      "##욘": 6158,
      "##숫": 6159,
      "##쫄": 6160,
      "##왼": 6161,
      "##쓸": 6162,
      "##헥": 6163,
      "##꽹": 6164,
      "##꼼": 6165,
      "##욤": 6166,
      "##넝": 6167,
      "##빕": 6168,
      "##죵": 6169,
      "##욧": 6170,
      "##찼": 6171,
      "##썰": 6172,
      "##렘": 6173,
      "##붉": 6174,
      "##쩡": 6175,
      "##겻": 6176,
      "##🐷": 6177,
      "##▲": 6178,
      "##봤": 6179,
      "##슛": 6180,
      "##옻": 6181,
      "##홰": 6182,
      "##벵": 6183,
      "##굣": 6184,
      "##쓱": 6185,
      "##촵": 6186,
      "##쫘": 6187,
      "##웬": 6188,
      "##낯": 6189,
      "##앓": 6190,
      "##캥": 6191,
      "##셍": 6192,
      "##━": 6193,
      "##헷": 6194,
      "##굳": 6195,
      "##🙂": 6196,
      "##❣": 6197,
      "##귈": 6198,
      "##°": 6199,
      "##펩": 6200,
      "##냅": 6201,
      "##뻔": 6202,
      "##옐": 6203,
      "##샌": 6204,
      "##힙": 6205,
      "##됴": 6206,
      "##텨": 6207,
      "##겔": 6208,
      "##힌": 6209,
      "##퓌": 6210,
      "##냑": 6211,
      "##섣": 6212,
      "##´": 6213,
      "##씁": 6214,
      "##겹": 6215,
      "##🍳": 6216,
      "##찐": 6217,
      "##샐": 6218,
      "##챙": 6219,
      "##줏": 6220,
      "##앳": 6221,
      "##슌": 6222,
      "##깝": 6223,
      "##힉": 6224,
      "##🐽": 6225,
      "##겉": 6226,
      "##쯤": 6227,
      "##넉": 6228,
      "##썸": 6229,
      "##촤": 6230,
      "##퍽": 6231,
      "##좁": 6232,
      "##밈": 6233,
      "##깁": 6234,
      "##벚": 6235,
      "##🎶": 6236,
      "##볜": 6237,
      "##쿼": 6238,
      "##뚤": 6239,
      "##짠": 6240,
      "##썼": 6241,
      "##벗": 6242,
      "##걷": 6243,
      "##멧": 6244,
      "##섰": 6245,
      "##놨": 6246,
      "##빳": 6247,
      "##뎈": 6248,
      "##흄": 6249,
      "##찹": 6250,
      "##🙋": 6251,
      "##펌": 6252,
      "##쨌": 6253,
      "##⑨": 6254,
      "##🏃": 6255,
      "##듐": 6256,
      "##낮": 6257,
      "##닮": 6258,
      "##뤽": 6259,
      "##핌": 6260,
      "##팍": 6261,
      "##첵": 6262,
      "##잌": 6263,
      "##팎": 6264,
      "##팰": 6265,
      "##짭": 6266,
      "##뮐": 6267,
      "##닿": 6268,
      "##팸": 6269,
      "##옛": 6270,
      "##딥": 6271,
      "##칫": 6272,
      "##맑": 6273,
      "##겪": 6274,
      "##똬": 6275,
      "##낚": 6276,
      "##낱": 6277,
      "##륭": 6278,
      "##볍": 6279,
      "##～": 6280,
      "##̈": 6281,
      "##낵": 6282,
      "##옙": 6283,
      "##̥": 6284,
      "##꼽": 6285,
      "##쐬": 6286,
      "##섶": 6287,
      "##★": 6288,
      "##얹": 6289,
      "##밉": 6290,
      "##욜": 6291,
      "##믐": 6292,
      "##츨": 6293,
      "##낫": 6294,
      "##갛": 6295,
      "##갇": 6296,
      "##짹": 6297,
      "##숏": 6298,
      "##쥴": 6299,
      "##웹": 6300,
      "##핫": 6301,
      "##숯": 6302,
      "##펐": 6303,
      "##텀": 6304,
      "##뮬": 6305,
      "##П": 6306,
      "##돋": 6307,
      "##☞": 6308,
      "##솎": 6309,
      "##켐": 6310,
      "##씽": 6311,
      "##씌": 6312,
      "##웰": 6313,
      "##쿡": 6314,
      "##눌": 6315,
      "##셴": 6316,
      "##굵": 6317,
      "##뜬": 6318,
      "##땀": 6319,
      "##🤔": 6320,
      "##샥": 6321,
      "##쉴": 6322,
      "##팹": 6323,
      "##В": 6324,
      "##쾨": 6325,
      "##▽": 6326,
      "##왁": 6327,
      "##퀼": 6328,
      "##＝": 6329,
      "##셤": 6330,
      "##＜": 6331,
      "##젼": 6332,
      "##챌": 6333,
      "##뀜": 6334,
      "##룻": 6335,
      "##팜": 6336,
      "##ｇ": 6337,
      "##풋": 6338,
      "##◡": 6339,
      "##툼": 6340,
      "##잃": 6341,
      "##갠": 6342,
      "##컷": 6343,
      "##넜": 6344,
      "##팻": 6345,
      "##걔": 6346,
      "##딪": 6347,
      "##텡": 6348,
      "##핍": 6349,
      "##핼": 6350,
      "##됏": 6351,
      "##잭": 6352,
      "##캣": 6353,
      "##잽": 6354,
      "##쐐": 6355,
      "##햐": 6356,
      "##섀": 6357,
      "##뎁": 6358,
      "##툴": 6359,
      "##뎠": 6360,
      "##댐": 6361,
      "##땠": 6362,
      "##쎈": 6363,
      "##덟": 6364,
      "##❗": 6365,
      "##릏": 6366,
      "##뒈": 6367,
      "##넵": 6368,
      "##뵤": 6369,
      "##♤": 6370,
      "##쿰": 6371,
      "##⑦": 6372,
      "##깜": 6373,
      "##틋": 6374,
      "##△": 6375,
      "##⑥": 6376,
      "##롄": 6377,
      "##낳": 6378,
      "##왠": 6379,
      "##혓": 6380,
      "##펍": 6381,
      "##헉": 6382,
      "##콥": 6383,
      "##볕": 6384,
      "##쬐": 6385,
      "##잊": 6386,
      "##랠": 6387,
      "##벳": 6388,
      "##＞": 6389,
      "##뇰": 6390,
      "##냘": 6391,
      "##팠": 6392,
      "##⑪": 6393,
      "##휼": 6394,
      "##⑵": 6395,
      "##맣": 6396,
      "##땋": 6397,
      "##휑": 6398,
      "##옭": 6399,
      "##😏": 6400,
      "##₂": 6401,
      "##둡": 6402,
      "##폿": 6403,
      "##곸": 6404,
      "##Δ": 6405,
      "##꿋": 6406,
      "##㉢": 6407,
      "##쌔": 6408,
      "##쥘": 6409,
      "##맏": 6410,
      "##찢": 6411,
      "##ː": 6412,
      "##랖": 6413,
      "##퉤": 6414,
      "##챗": 6415,
      "##퓸": 6416,
      "##솥": 6417,
      "##콰": 6418,
      "##쾅": 6419,
      "##М": 6420,
      "##뺑": 6421,
      "##쨋": 6422,
      "##냇": 6423,
      "##찡": 6424,
      "##씰": 6425,
      "##˝": 6426,
      "##뭘": 6427,
      "##넴": 6428,
      "##슥": 6429,
      "##뛸": 6430,
      "##탯": 6431,
      "##훑": 6432,
      "##먀": 6433,
      "##숄": 6434,
      "##빽": 6435,
      "##엎": 6436,
      "##딴": 6437,
      "##Ⅲ": 6438,
      "##묽": 6439,
      "##≪": 6440,
      "##쉘": 6441,
      "##⑶": 6442,
      "##꺽": 6443,
      "##뭡": 6444,
      "##컹": 6445,
      "##뮴": 6446,
      "##숑": 6447,
      "##깟": 6448,
      "##갚": 6449,
      "##훗": 6450,
      "##웩": 6451,
      "##쨩": 6452,
      "##㉯": 6453,
      "##궂": 6454,
      "##↑": 6455,
      "##돕": 6456,
      "##윔": 6457,
      "##￣": 6458,
      "##땔": 6459,
      "##펫": 6460,
      "##팁": 6461,
      "##핥": 6462,
      "##샅": 6463,
      "##슝": 6464,
      "##휀": 6465,
      "##홋": 6466,
      "##₁": 6467,
      "##찧": 6468,
      "##탭": 6469,
      "##헹": 6470,
      "##띔": 6471,
      "##짧": 6472,
      "##⑧": 6473,
      "##씹": 6474,
      "##챱": 6475,
      "##씸": 6476,
      "##찝": 6477,
      "##빴": 6478,
      "##①": 6479,
      "##돛": 6480,
      "##칡": 6481,
      "##㎝": 6482,
      "##뿍": 6483,
      "##떤": 6484,
      "##쏭": 6485,
      "##멓": 6486,
      "##괭": 6487,
      "##틔": 6488,
      "##귓": 6489,
      "##㈜": 6490,
      "##맬": 6491,
      "##딛": 6492,
      "##짙": 6493,
      "##깬": 6494,
      "##쌩": 6495,
      "##✨": 6496,
      "##늙": 6497,
      "##끓": 6498,
      "##숟": 6499,
      "##삘": 6500,
      "##⑩": 6501,
      "##텟": 6502,
      "##됬": 6503,
      "##옅": 6504,
      "##텃": 6505,
      "##딧": 6506,
      "##겊": 6507,
      "##¹": 6508,
      "##훨": 6509,
      "##갉": 6510,
      "##뗏": 6511,
      "##Ⅵ": 6512,
      "##썬": 6513,
      "##ⓑ": 6514,
      "##ⓒ": 6515,
      "##댑": 6516,
      "##쳇": 6517,
      "##촛": 6518,
      "##˚": 6519,
      "##뻥": 6520,
      "##덱": 6521,
      "##◇": 6522,
      "##큭": 6523,
      "##㉮": 6524,
      "##퉈": 6525,
      "##∙": 6526,
      "##쭙": 6527,
      "##퀵": 6528,
      "##뽐": 6529,
      "##놉": 6530,
      "##❤": 6531,
      "##깥": 6532,
      "##뎐": 6533,
      "##꼿": 6534,
      "##줫": 6535,
      "##켤": 6536,
      "##셧": 6537,
      "##뺄": 6538,
      "##긱": 6539,
      "##맺": 6540,
      "##젭": 6541,
      "##☕": 6542,
      "##얕": 6543,
      "##｜": 6544,
      "##갬": 6545,
      "##큘": 6546,
      "##힛": 6547,
      "##뜯": 6548,
      "##챘": 6549,
      "##뀐": 6550,
      "##깎": 6551,
      "##맸": 6552,
      "##끙": 6553,
      "##텝": 6554,
      "##듦": 6555,
      "##─": 6556,
      "##왤": 6557,
      "##꿎": 6558,
      "##㉡": 6559,
      "##ღ": 6560,
      "##젬": 6561,
      "##̣": 6562,
      "##궜": 6563,
      "##냔": 6564,
      "##낟": 6565,
      "##컥": 6566,
      "##뺨": 6567,
      "##줍": 6568,
      "##뙤": 6569,
      "##덫": 6570,
      "##쉑": 6571,
      "##✔": 6572,
      "##쏟": 6573,
      "##쏠": 6574,
      "##컸": 6575,
      "##콸": 6576,
      "##튤": 6577,
      "##빻": 6578,
      "##뜀": 6579,
      "##〓": 6580,
      "##ㅤ": 6581,
      "##◎": 6582,
      "##┌": 6583,
      "##│": 6584,
      "##괌": 6585,
      "##밟": 6586,
      "##샜": 6587,
      "##갰": 6588,
      "##폈": 6589,
      "##쳉": 6590,
      "##땜": 6591,
      "##쥰": 6592,
      "##뎀": 6593,
      "##쿱": 6594,
      "##탓": 6595,
      "##넋": 6596,
      "##묻": 6597,
      "##꽥": 6598,
      "##킁": 6599,
      "##헴": 6600,
      "##㎖": 6601,
      "##쟌": 6602,
      "##쨍": 6603,
      "##™": 6604,
      "##곧": 6605,
      "##잰": 6606,
      "##멎": 6607,
      "##뛴": 6608,
      "##뒹": 6609,
      "##뻤": 6610,
      "##깰": 6611,
      "##츰": 6612,
      "##뵐": 6613,
      "##뮈": 6614,
      "##📌": 6615,
      "##€": 6616,
      "##얽": 6617,
      "##흩": 6618,
      "##셌": 6619,
      "##얻": 6620,
      "##쫙": 6621,
      "##뗀": 6622,
      "##잦": 6623,
      "##✅": 6624,
      "##⑫": 6625,
      "##룀": 6626,
      "##빚": 6627,
      "##쌕": 6628,
      "##뻗": 6629,
      "##귐": 6630,
      "##낡": 6631,
      "##떫": 6632,
      "##헵": 6633,
      "##잴": 6634,
      "##떵": 6635,
      "##깄": 6636,
      "##웜": 6637,
      "##끽": 6638,
      "##늪": 6639,
      "##얇": 6640,
      "##횃": 6641,
      "##얗": 6642,
      "##꺅": 6643,
      "##몄": 6644,
      "##≫": 6645,
      "##♣": 6646,
      "##쁩": 6647,
      "##ℓ": 6648,
      "##폄": 6649,
      "##⭐": 6650,
      "##옇": 6651,
      "##쇳": 6652,
      "##탰": 6653,
      "##뱉": 6654,
      "##삑": 6655,
      "##먐": 6656,
      "##뿡": 6657,
      "##휜": 6658,
      "##쌉": 6659,
      "##뤘": 6660,
      "##넸": 6661,
      "##㎏": 6662,
      "##쪘": 6663,
      "##▷": 6664,
      "##겡": 6665,
      "##텼": 6666,
      "##퀄": 6667,
      "##➡": 6668,
      "##퓰": 6669,
      "##쭤": 6670,
      "##뺀": 6671,
      "##깼": 6672,
      "##콱": 6673,
      "##꽤": 6674,
      "##큽": 6675,
      "##탉": 6676,
      "##띄": 6677,
      "##쉿": 6678,
      "##굶": 6679,
      "##♀": 6680,
      "##샀": 6681,
      "##뙇": 6682,
      "##㉰": 6683,
      "##☺": 6684,
      "##홑": 6685,
      "##⇒": 6686,
      "##홱": 6687,
      "##몹": 6688,
      "##뀔": 6689,
      "##짢": 6690,
      "##◈": 6691,
      "##㉠": 6692,
      "##쏙": 6693,
      "##쾰": 6694,
      "##앴": 6695,
      "##㎿": 6696,
      "##✌": 6697,
      "##뭣": 6698,
      "##뺏": 6699,
      "##＄": 6700,
      "##떴": 6701,
      "##챕": 6702,
      "##휩": 6703,
      "##숱": 6704,
      "##갭": 6705,
      "##튿": 6706,
      "##닢": 6707,
      "##텄": 6708,
      "##휙": 6709,
      "##묶": 6710,
      "##닻": 6711,
      "##뵙": 6712,
      "##쇤": 6713,
      "##옳": 6714,
      "##㏊": 6715,
      "##앎": 6716,
      "##▨": 6717,
      "##뷴": 6718,
      "##▫": 6719,
      "##┬": 6720,
      "##뢴": 6721,
      "##쫒": 6722,
      "##㈔": 6723,
      "##푀": 6724,
      "##엾": 6725,
      "##햅": 6726,
      "##꽉": 6727,
      "##껀": 6728,
      "##컫": 6729,
      "##⑴": 6730,
      "##좔": 6731,
      "##뵌": 6732,
      "##½": 6733,
      "##뉠": 6734,
      "##벧": 6735,
      "##땄": 6736,
      "##닳": 6737,
      "##잿": 6738,
      "##쏜": 6739,
      "##곯": 6740,
      "##눴": 6741,
      "##됩": 6742,
      "##짊": 6743,
      "##봬": 6744,
      "##슉": 6745,
      "##㎜": 6746,
      "##싣": 6747,
      "##낍": 6748,
      "##푯": 6749,
      "##뼉": 6750,
      "##뉜": 6751,
      "##곪": 6752,
      "##㎞": 6753,
      "##♂": 6754,
      "##−": 6755,
      "##좇": 6756,
      "##↔": 6757,
      "##튄": 6758,
      "##₩": 6759,
      "##㏄": 6760,
      "##띨": 6761,
      "##☏": 6762,
      "##띈": 6763,
      "##펼": 6764,
      "##㎍": 6765,
      "##├": 6766,
      "##㎉": 6767,
      "##뼘": 6768,
      "##엷": 6769,
      "##㎒": 6770,
      "##껐": 6771,
      "##㈎": 6772,
      "##짰": 6773,
      "##퉜": 6774,
      "##▣": 6775,
      "##뺐": 6776,
      "##윕": 6777,
      "##웸": 6778,
      "##㎾": 6779,
      "##뭍": 6780,
      "##㎥": 6781,
      "##뗐": 6782,
      "##읊": 6783,
      "##☎": 6784,
      "으로": 6785,
      "에서": 6786,
      "한다": 6787,
      "##00": 6788,
      "##니다": 6789,
      "에게": 6790,
      "까지": 6791,
      "지만": 6792,
      "사람": 6793,
      "19": 6794,
      "면서": 6795,
      "라고": 6796,
      "20": 6797,
      "다는": 6798,
      "아니": 6799,
      "대한": 6800,
      "우리": 6801,
      "된다": 6802,
      "라는": 6803,
      "는데": 6804,
      "다고": 6805,
      "때문": 6806,
      "그러": 6807,
      "습니다": 6808,
      "지난": 6809,
      "위해": 6810,
      "부터": 6811,
      "생각": 6812,
      "한국": 6813,
      "보다": 6814,
      "10": 6815,
      "지역": 6816,
      "201": 6817,
      "200": 6818,
      "그리": 6819,
      "문제": 6820,
      "자신": 6821,
      "경우": 6822,
      "그런": 6823,
      "이나": 6824,
      "사업": 6825,
      "통해": 6826,
      "대해": 6827,
      "시간": 6828,
      "사회": 6829,
      "따라": 6830,
      "다른": 6831,
      "기업": 6832,
      "해야": 6833,
      "함께": 6834,
      "아이": 6835,
      "시장": 6836,
      "미국": 6837,
      "하나": 6838,
      "그렇": 6839,
      "관계": 6840,
      "정부": 6841,
      "이상": 6842,
      "가지": 6843,
      "대표": 6844,
      "세계": 6845,
      "시작": 6846,
      "가능": 6847,
      "지금": 6848,
      "교육": 6849,
      "그리고": 6850,
      "서울": 6851,
      "가장": 6852,
      "경기": 6853,
      "그러나": 6854,
      "사실": 6855,
      "처럼": 6856,
      "경제": 6857,
      "도록": 6858,
      "이런": 6859,
      "만들": 6860,
      "그래": 6861,
      "필요": 6862,
      "사용": 6863,
      "는다": 6864,
      "정도": 6865,
      "일본": 6866,
      "프로": 6867,
      "##지만": 6868,
      "위원": 6869,
      "연구": 6870,
      "다시": 6871,
      "들어": 6872,
      "12": 6873,
      "중국": 6874,
      "어요": 6875,
      "해서": 6876,
      "이후": 6877,
      "위한": 6878,
      "지원": 6879,
      "문화": 6880,
      "으면": 6881,
      "이번": 6882,
      "##통령": 6883,
      "11": 6884,
      "으며": 6885,
      "하지만": 6886,
      "대통령": 6887,
      "모두": 6888,
      "다음": 6889,
      "관련": 6890,
      "대학": 6891,
      "이제": 6892,
      "정치": 6893,
      "어서": 6894,
      "상황": 6895,
      "밝혔": 6896,
      "투자": 6897,
      "국가": 6898,
      "사이": 6899,
      "현재": 6900,
      "다가": 6901,
      "개발": 6902,
      "모든": 6903,
      "계획": 6904,
      "##니까": 6905,
      "의원": 6906,
      "어떤": 6907,
      "##er": 6908,
      "학교": 6909,
      "15": 6910,
      "기술": 6911,
      "이렇": 6912,
      "거나": 6913,
      "마음": 6914,
      "입니다": 6915,
      "특히": 6916,
      "18": 6917,
      "결과": 6918,
      "활동": 6919,
      "그것": 6920,
      "30": 6921,
      "많이": 6922,
      "후보": 6923,
      "영화": 6924,
      "국민": 6925,
      "ㅋㅋ": 6926,
      "##스트": 6927,
      "조사": 6928,
      "국내": 6929,
      "과정": 6930,
      "이렇게": 6931,
      "이야": 6932,
      "진행": 6933,
      "중요": 6934,
      "지난해": 6935,
      "도시": 6936,
      "새로": 6937,
      "최근": 6938,
      "동안": 6939,
      "산업": 6940,
      "다양": 6941,
      "전문": 6942,
      "나타": 6943,
      "##on": 6944,
      "이용": 6945,
      "관리": 6946,
      "##부터": 6947,
      "기록": 6948,
      "##주의": 6949,
      "대상": 6950,
      "민주": 6951,
      "는지": 6952,
      "또한": 6953,
      "이야기": 6954,
      "정보": 6955,
      "여러": 6956,
      "올해": 6957,
      "회사": 6958,
      "당시": 6959,
      "199": 6960,
      "이미": 6961,
      "처음": 6962,
      "선수": 6963,
      "나라": 6964,
      "학생": 6965,
      "##대로": 6966,
      "정책": 6967,
      "너무": 6968,
      "여기": 6969,
      "평가": 6970,
      "보이": 6971,
      "어떻": 6972,
      "스타": 6973,
      "이유": 6974,
      "모습": 6975,
      "자기": 6976,
      "##000": 6977,
      "결정": 6978,
      "##시아": 6979,
      "##라고": 6980,
      "운영": 6981,
      "사랑": 6982,
      "의미": 6983,
      "그래서": 6984,
      "바로": 6985,
      "자리": 6986,
      "이어": 6987,
      "내용": 6988,
      "생활": 6989,
      "설명": 6990,
      "인간": 6991,
      "금융": 6992,
      "여성": 6993,
      "운동": 6994,
      "돌아": 6995,
      "16": 6996,
      "다면": 6997,
      "없이": 6998,
      "시키": 6999,
      "아무": 7000,
      "##비스": 7001,
      "한다는": 7002,
      "##in": 7003,
      "주장": 7004,
      "그녀": 7005,
      "제품": 7006,
      "새로운": 7007,
      "합니다": 7008,
      "못하": 7009,
      "이러": 7010,
      "##어나": 7011,
      "방법": 7012,
      "##or": 7013,
      "역사": 7014,
      "13": 7015,
      "관계자": 7016,
      "참여": 7017,
      "방송": 7018,
      "국제": 7019,
      "##운데": 7020,
      "이날": 7021,
      "##으며": 7022,
      "오늘": 7023,
      "##an": 7024,
      "환경": 7025,
      "같이": 7026,
      "어야": 7027,
      "최고": 7028,
      "감독": 7029,
      "업체": 7030,
      "지방": 7031,
      "사건": 7032,
      "14": 7033,
      "이름": 7034,
      "선거": 7035,
      "계속": 7036,
      "시대": 7037,
      "서비스": 7038,
      "현대": 7039,
      "예정": 7040,
      "17": 7041,
      "북한": 7042,
      "가운데": 7043,
      "규모": 7044,
      "기준": 7045,
      "라며": 7046,
      "추진": 7047,
      "기관": 7048,
      "중심": 7049,
      "발전": 7050,
      "삼성": 7051,
      "구성": 7052,
      "##레이": 7053,
      "나오": 7054,
      "조선": 7055,
      "물론": 7056,
      "만큼": 7057,
      "경찰": 7058,
      "부분": 7059,
      "생산": 7060,
      "어떻게": 7061,
      "여자": 7062,
      "시민": 7063,
      "따르": 7064,
      "직접": 7065,
      "교수": 7066,
      "발생": 7067,
      "상태": 7068,
      "가격": 7069,
      "경쟁": 7070,
      "##랜드": 7071,
      "소리": 7072,
      "##머니": 7073,
      "25": 7074,
      "알려": 7075,
      "발표": 7076,
      "준비": 7077,
      "##인다": 7078,
      "관심": 7079,
      "대회": 7080,
      "어느": 7081,
      "성장": 7082,
      "아닌": 7083,
      "상대": 7084,
      "제공": 7085,
      "포함": 7086,
      "##en": 7087,
      "회장": 7088,
      "##리아": 7089,
      "어려": 7090,
      "일반": 7091,
      "역시": 7092,
      "기대": 7093,
      "그런데": 7094,
      "일부": 7095,
      "보여": 7096,
      "100": 7097,
      "전체": 7098,
      "효과": 7099,
      "부산": 7100,
      "판매": 7101,
      "개인": 7102,
      "성공": 7103,
      "국회": 7104,
      "또는": 7105,
      "변화": 7106,
      "얘기": 7107,
      "자유": 7108,
      "로서": 7109,
      "대구": 7110,
      "이라고": 7111,
      "분석": 7112,
      "작품": 7113,
      "무엇": 7114,
      "프로그": 7115,
      "떨어": 7116,
      "요구": 7117,
      "확인": 7118,
      "노동": 7119,
      "위원회": 7120,
      "마련": 7121,
      "인터": 7122,
      "구조": 7123,
      "자연": 7124,
      "인지": 7125,
      "ㅋㅋㅋ": 7126,
      "아직": 7127,
      "수준": 7128,
      "이해": 7129,
      "프로그램": 7130,
      "존재": 7131,
      "행사": 7132,
      "##버지": 7133,
      "그렇게": 7134,
      "가족": 7135,
      "영향": 7136,
      "##ti": 7137,
      "은행": 7138,
      "인데": 7139,
      "50": 7140,
      "더욱": 7141,
      "기간": 7142,
      "더라": 7143,
      "고객": 7144,
      "경영": 7145,
      "모르": 7146,
      "센터": 7147,
      "전국": 7148,
      "시설": 7149,
      "공동": 7150,
      "이것": 7151,
      "대해서": 7152,
      "단체": 7153,
      "친구": 7154,
      "##ar": 7155,
      "자동": 7156,
      "얼마": 7157,
      "입장": 7158,
      "실제": 7159,
      "위해서": 7160,
      "결국": 7161,
      "##al": 7162,
      "방식": 7163,
      "증가": 7164,
      "소비": 7165,
      "정말": 7166,
      "니까": 7167,
      "조직": 7168,
      "최대": 7169,
      "인가": 7170,
      "상품": 7171,
      "대부": 7172,
      "198": 7173,
      "주민": 7174,
      "한편": 7175,
      "지적": 7176,
      "지나": 7177,
      "달러": 7178,
      "이루": 7179,
      "노력": 7180,
      "##es": 7181,
      "역할": 7182,
      "건설": 7183,
      "가치": 7184,
      "##진다": 7185,
      "분야": 7186,
      "제도": 7187,
      "얼굴": 7188,
      "피해": 7189,
      "해도": 7190,
      "라면": 7191,
      "특별": 7192,
      "21": 7193,
      "남자": 7194,
      "활용": 7195,
      "강조": 7196,
      "확대": 7197,
      "나가": 7198,
      "세상": 7199,
      "대부분": 7200,
      "마다": 7201,
      "책임": 7202,
      "회의": 7203,
      "정신": 7204,
      "과학": 7205,
      "건강": 7206,
      "24": 7207,
      "인사": 7208,
      "대로": 7209,
      "##거리": 7210,
      "유지": 7211,
      "사고": 7212,
      "당신": 7213,
      "기능": 7214,
      "전략": 7215,
      "강화": 7216,
      "선택": 7217,
      "그룹": 7218,
      "먼저": 7219,
      "공개": 7220,
      "어린": 7221,
      "자체": 7222,
      "현실": 7223,
      "만나": 7224,
      "한다고": 7225,
      "시즌": 7226,
      "로부터": 7227,
      "중앙": 7228,
      "시스": 7229,
      "전망": 7230,
      "못했": 7231,
      "찾아": 7232,
      "사진": 7233,
      "##이트": 7234,
      "##전히": 7235,
      "는가": 7236,
      "40": 7237,
      "배우": 7238,
      "조금": 7239,
      "표현": 7240,
      "의해": 7241,
      "행정": 7242,
      "22": 7243,
      "능력": 7244,
      "을까": 7245,
      "전쟁": 7246,
      "아버지": 7247,
      "위치": 7248,
      "미래": 7249,
      "외국": 7250,
      "주택": 7251,
      "라도": 7252,
      "경험": 7253,
      "안전": 7254,
      "##다는": 7255,
      "서로": 7256,
      "인정": 7257,
      "병원": 7258,
      "해결": 7259,
      "음악": 7260,
      "하루": 7261,
      "기자": 7262,
      "인천": 7263,
      "밖에": 7264,
      "게임": 7265,
      "예상": 7266,
      "비롯": 7267,
      "##소리": 7268,
      "기존": 7269,
      "여행": 7270,
      "보험": 7271,
      "공간": 7272,
      "목표": 7273,
      "공사": 7274,
      "관광": 7275,
      "23": 7276,
      "따라서": 7277,
      "드러": 7278,
      "정상": 7279,
      "시스템": 7280,
      "올라": 7281,
      "누구": 7282,
      "##이스": 7283,
      "주요": 7284,
      "려고": 7285,
      "보인다": 7286,
      "해외": 7287,
      "개선": 7288,
      "직원": 7289,
      "마을": 7290,
      "계약": 7291,
      "머리": 7292,
      "나온": 7293,
      "어디": 7294,
      "기본": 7295,
      "오후": 7296,
      "지도": 7297,
      "못한": 7298,
      "고려": 7299,
      "자동차": 7300,
      "아요": 7301,
      "거래": 7302,
      "내려": 7303,
      "개월": 7304,
      "현장": 7305,
      "광주": 7306,
      "##he": 7307,
      "이전": 7308,
      "반대": 7309,
      "아들": 7310,
      "열린": 7311,
      "##없이": 7312,
      "위기": 7313,
      "##너지": 7314,
      "방문": 7315,
      "실시": 7316,
      "해당": 7317,
      "아파": 7318,
      "아서": 7319,
      "적용": 7320,
      "수사": 7321,
      "마지": 7322,
      "##민국": 7323,
      "추가": 7324,
      "지속": 7325,
      "제작": 7326,
      "그램": 7327,
      "설치": 7328,
      "거리": 7329,
      "거의": 7330,
      "프랑": 7331,
      "으로써": 7332,
      "대비": 7333,
      "발견": 7334,
      "기회": 7335,
      "위원장": 7336,
      "으로서": 7337,
      "전화": 7338,
      "##으나": 7339,
      "예술": 7340,
      "유럽": 7341,
      "단계": 7342,
      "대한민국": 7343,
      "아야": 7344,
      "마지막": 7345,
      "행동": 7346,
      "##어난": 7347,
      "26": 7348,
      "영국": 7349,
      "려는": 7350,
      "27": 7351,
      "아주": 7352,
      "도움": 7353,
      "적극": 7354,
      "##마트": 7355,
      "엄마": 7356,
      "상승": 7357,
      "장관": 7358,
      "공격": 7359,
      "매우": 7360,
      "상당": 7361,
      "들어가": 7362,
      "업무": 7363,
      "치료": 7364,
      "예산": 7365,
      "28": 7366,
      "작업": 7367,
      "리그": 7368,
      "느냐": 7369,
      "언론": 7370,
      "통합": 7371,
      "판단": 7372,
      "공연": 7373,
      "대신": 7374,
      "동시": 7375,
      "차이": 7376,
      "바람": 7377,
      "##스로": 7378,
      "##동안": 7379,
      "##나라": 7380,
      "행위": 7381,
      "집중": 7382,
      "감사": 7383,
      "이사": 7384,
      "비판": 7385,
      "##자리": 7386,
      "검찰": 7387,
      "작가": 7388,
      "각각": 7389,
      "바라": 7390,
      "부담": 7391,
      "자료": 7392,
      "달리": 7393,
      "독일": 7394,
      "197": 7395,
      "보호": 7396,
      "아파트": 7397,
      "민주당": 7398,
      "수익": 7399,
      "우선": 7400,
      "##ic": 7401,
      "보내": 7402,
      "음식": 7403,
      "시켜": 7404,
      "선정": 7405,
      "선생": 7406,
      "과거": 7407,
      "의사": 7408,
      "으나": 7409,
      "브랜드": 7410,
      "차지": 7411,
      "조성": 7412,
      "어머니": 7413,
      "의견": 7414,
      "스스로": 7415,
      "처리": 7416,
      "사장": 7417,
      "세요": 7418,
      "문학": 7419,
      "확보": 7420,
      "만든": 7421,
      "협력": 7422,
      "조정": 7423,
      "내년": 7424,
      "주변": 7425,
      "이르": 7426,
      "무슨": 7427,
      "프랑스": 7428,
      "##is": 7429,
      "결혼": 7430,
      "평균": 7431,
      "그때": 7432,
      "그냥": 7433,
      "지구": 7434,
      "형태": 7435,
      "출신": 7436,
      "부족": 7437,
      "##디어": 7438,
      "단지": 7439,
      "비용": 7440,
      "그림": 7441,
      "사무": 7442,
      "##른다": 7443,
      "전문가": 7444,
      "공급": 7445,
      "행복": 7446,
      "가까": 7447,
      "움직": 7448,
      "목적": 7449,
      "나왔": 7450,
      "안정": 7451,
      "관한": 7452,
      "보도": 7453,
      "인터넷": 7454,
      "더라도": 7455,
      "주인": 7456,
      "기억": 7457,
      "##리스": 7458,
      "공부": 7459,
      "위험": 7460,
      "전통": 7461,
      "인식": 7462,
      "드라": 7463,
      "##린다": 7464,
      "자금": 7465,
      "순간": 7466,
      "전자": 7467,
      "제대로": 7468,
      "목소리": 7469,
      "##it": 7470,
      "시기": 7471,
      "스러": 7472,
      "부모": 7473,
      "이익": 7474,
      "에너지": 7475,
      "진짜": 7476,
      "29": 7477,
      "지지": 7478,
      "의식": 7479,
      "글로": 7480,
      "어렵": 7481,
      "누리": 7482,
      "수출": 7483,
      "근데": 7484,
      "분위": 7485,
      "제시": 7486,
      "언제": 7487,
      "최초": 7488,
      "보였": 7489,
      "말씀": 7490,
      "##전자": 7491,
      "스럽": 7492,
      "통신": 7493,
      "##학교": 7494,
      "인기": 7495,
      "##가지": 7496,
      "비교": 7497,
      "모델": 7498,
      "거든": 7499,
      "##at": 7500,
      "규정": 7501,
      "복지": 7502,
      "도입": 7503,
      "대책": 7504,
      "##el": 7505,
      "반면": 7506,
      "나이": 7507,
      "매출": 7508,
      "그대로": 7509,
      "분위기": 7510,
      "글로벌": 7511,
      "디자": 7512,
      "아래": 7513,
      "##om": 7514,
      "분명": 7515,
      "환자": 7516,
      "주식": 7517,
      "앞서": 7518,
      "교통": 7519,
      "제기": 7520,
      "방안": 7521,
      "지요": 7522,
      "대전": 7523,
      "전시": 7524,
      "60": 7525,
      "노래": 7526,
      "신문": 7527,
      "오히": 7528,
      "세기": 7529,
      "TV": 7530,
      "등장": 7531,
      "차례": 7532,
      "오히려": 7533,
      "그럼": 7534,
      "우려": 7535,
      "영업": 7536,
      "방향": 7537,
      "소비자": 7538,
      "이뤄": 7539,
      "종합": 7540,
      "올림": 7541,
      "소설": 7542,
      "참가": 7543,
      "얼마나": 7544,
      "느낌": 7545,
      "체험": 7546,
      "생명": 7547,
      "가구": 7548,
      "시행": 7549,
      "충분": 7550,
      "고자": 7551,
      "핵심": 7552,
      "비해": 7553,
      "의료": 7554,
      "LG": 7555,
      "공장": 7556,
      "인물": 7557,
      "개최": 7558,
      "따른": 7559,
      "롯데": 7560,
      "기다": 7561,
      "논의": 7562,
      "우승": 7563,
      "높이": 7564,
      "##이어": 7565,
      "스마트": 7566,
      "196": 7567,
      "##레스": 7568,
      "예요": 7569,
      "가진": 7570,
      "제주": 7571,
      "지식": 7572,
      "일정": 7573,
      "소속": 7574,
      "시절": 7575,
      "유명": 7576,
      "소개": 7577,
      "장애": 7578,
      "현상": 7579,
      "인해": 7580,
      "수도": 7581,
      "가정": 7582,
      "연결": 7583,
      "인상": 7584,
      "##어지": 7585,
      "축구": 7586,
      "##아들": 7587,
      "피부": 7588,
      "한테": 7589,
      "이동": 7590,
      "2000": 7591,
      "다르": 7592,
      "광고": 7593,
      "질문": 7594,
      "인구": 7595,
      "설립": 7596,
      "으로부터": 7597,
      "민족": 7598,
      "##한다": 7599,
      "마치": 7600,
      "검사": 7601,
      "전혀": 7602,
      "올림픽": 7603,
      "장기": 7604,
      "조건": 7605,
      "개혁": 7606,
      "사상": 7607,
      "중소": 7608,
      "인도": 7609,
      "##이터": 7610,
      "거기": 7611,
      "카드": 7612,
      "기사": 7613,
      "전기": 7614,
      "##ol": 7615,
      "더니": 7616,
      "공식": 7617,
      "잖아": 7618,
      "##am": 7619,
      "가져": 7620,
      "신청": 7621,
      "31": 7622,
      "아름": 7623,
      "잘못": 7624,
      "정당": 7625,
      "참석": 7626,
      "네요": 7627,
      "건물": 7628,
      "대화": 7629,
      "2010": 7630,
      "##아가": 7631,
      "진출": 7632,
      "##기업": 7633,
      "SK": 7634,
      "차량": 7635,
      "에선": 7636,
      "개념": 7637,
      "도로": 7638,
      "##tion": 7639,
      "##st": 7640,
      "기획": 7641,
      "##ing": 7642,
      "오전": 7643,
      "담당": 7644,
      "희망": 7645,
      "##ul": 7646,
      "부문": 7647,
      "사례": 7648,
      "힘들": 7649,
      "##라인": 7650,
      "이곳": 7651,
      "각종": 7652,
      "시험": 7653,
      "업계": 7654,
      "아침": 7655,
      "체계": 7656,
      "연기": 7657,
      "스포": 7658,
      "청소": 7659,
      "이게": 7660,
      "재정": 7661,
      "지난달": 7662,
      "성과": 7663,
      "부동": 7664,
      "바이": 7665,
      "대출": 7666,
      "내부": 7667,
      "유치": 7668,
      "주목": 7669,
      "그만": 7670,
      "정확": 7671,
      "합의": 7672,
      "출시": 7673,
      "공공": 7674,
      "러시아": 7675,
      "체제": 7676,
      "디자인": 7677,
      "##이션": 7678,
      "아시아": 7679,
      "자본": 7680,
      "아마": 7681,
      "훈련": 7682,
      "##BS": 7683,
      "재판": 7684,
      "펀드": 7685,
      "혁신": 7686,
      "##인트": 7687,
      "소득": 7688,
      "나무": 7689,
      "나타났": 7690,
      "했으며": 7691,
      "혐의": 7692,
      "##무원": 7693,
      "2012": 7694,
      "걱정": 7695,
      "연합": 7696,
      "기반": 7697,
      "단순": 7698,
      "##ur": 7699,
      "다니": 7700,
      "사라": 7701,
      "독립": 7702,
      "원인": 7703,
      "시청": 7704,
      "세대": 7705,
      "의회": 7706,
      "교회": 7707,
      "수요": 7708,
      "논란": 7709,
      "수입": 7710,
      "형성": 7711,
      "##이크": 7712,
      "주로": 7713,
      "구체": 7714,
      "70": 7715,
      "비슷": 7716,
      "준다": 7717,
      "드라마": 7718,
      "오래": 7719,
      "대형": 7720,
      "반응": 7721,
      "인제": 7722,
      "##이지": 7723,
      "승리": 7724,
      "버리": 7725,
      "##il": 7726,
      "대응": 7727,
      "협의": 7728,
      "교사": 7729,
      "##므로": 7730,
      "가입": 7731,
      "##et": 7732,
      "부정": 7733,
      "무대": 7734,
      "본부": 7735,
      "실제로": 7736,
      "청와": 7737,
      "일단": 7738,
      "차원": 7739,
      "스포츠": 7740,
      "청와대": 7741,
      "고민": 7742,
      "감소": 7743,
      "자원": 7744,
      "자산": 7745,
      "평화": 7746,
      "남편": 7747,
      "모양": 7748,
      "부동산": 7749,
      "요즘": 7750,
      "어린이": 7751,
      "지정": 7752,
      "##어들": 7753,
      "경기도": 7754,
      "습니까": 7755,
      "이끌": 7756,
      "주제": 7757,
      "전달": 7758,
      "선보": 7759,
      "느끼": 7760,
      "구축": 7761,
      "조치": 7762,
      "이하": 7763,
      "듯이": 7764,
      "##스터": 7765,
      "출연": 7766,
      "가슴": 7767,
      "거든요": 7768,
      "언어": 7769,
      "에요": 7770,
      "항공": 7771,
      "보고": 7772,
      "수행": 7773,
      "영어": 7774,
      "여름": 7775,
      "나와": 7776,
      "불과": 7777,
      "전환": 7778,
      "반영": 7779,
      "군사": 7780,
      "부르": 7781,
      "남성": 7782,
      "청년": 7783,
      "검토": 7784,
      "2011": 7785,
      "다만": 7786,
      "공원": 7787,
      "감정": 7788,
      "으니": 7789,
      "선물": 7790,
      "제외": 7791,
      "##어났": 7792,
      "자세": 7793,
      "경남": 7794,
      "월드": 7795,
      "어려운": 7796,
      "지하": 7797,
      "본격": 7798,
      "마찬": 7799,
      "만드": 7800,
      "아내": 7801,
      "2014": 7802,
      "혹은": 7803,
      "성적": 7804,
      "인생": 7805,
      "2008": 7806,
      "기념": 7807,
      "마찬가지": 7808,
      "등록": 7809,
      "##수록": 7810,
      "나타나": 7811,
      "선발": 7812,
      "일상": 7813,
      "그동안": 7814,
      "초등": 7815,
      "하늘": 7816,
      "분양": 7817,
      "2009": 7818,
      "한다면": 7819,
      "증권": 7820,
      "기초": 7821,
      "사망": 7822,
      "받아들": 7823,
      "##자기": 7824,
      "이론": 7825,
      "금리": 7826,
      "##라이": 7827,
      "회복": 7828,
      "고용": 7829,
      "울산": 7830,
      "여전히": 7831,
      "떠나": 7832,
      "일어나": 7833,
      "확실": 7834,
      "##nd": 7835,
      "##디오": 7836,
      "제한": 7837,
      "넘어": 7838,
      "국정": 7839,
      "개정": 7840,
      "소재": 7841,
      "어도": 7842,
      "맛있": 7843,
      "투표": 7844,
      "##반기": 7845,
      "지켜": 7846,
      "여부": 7847,
      "35": 7848,
      "시켰": 7849,
      "프리": 7850,
      "해요": 7851,
      "주도": 7852,
      "으면서": 7853,
      "수상": 7854,
      "지급": 7855,
      "해석": 7856,
      "라이": 7857,
      "파악": 7858,
      "분기": 7859,
      "2013": 7860,
      "##우스": 7861,
      "대중": 7862,
      "최종": 7863,
      "신경": 7864,
      "집단": 7865,
      "현지": 7866,
      "500": 7867,
      "정권": 7868,
      "학습": 7869,
      "2015": 7870,
      "부인": 7871,
      "실패": 7872,
      "활성": 7873,
      "80": 7874,
      "규제": 7875,
      "우수": 7876,
      "통일": 7877,
      "고등": 7878,
      "노조": 7879,
      "##스크": 7880,
      "##ch": 7881,
      "시킨": 7882,
      "시도": 7883,
      "보수": 7884,
      "195": 7885,
      "대선": 7886,
      "작용": 7887,
      "일으": 7888,
      "##운드": 7889,
      "외국인": 7890,
      "보장": 7891,
      "종교": 7892,
      "거쳐": 7893,
      "살펴": 7894,
      "구매": 7895,
      "협회": 7896,
      "자주": 7897,
      "요청": 7898,
      "오른": 7899,
      "추천": 7900,
      "이미지": 7901,
      "코스": 7902,
      "##드시": 7903,
      "반드시": 7904,
      "비율": 7905,
      "세력": 7906,
      "정리": 7907,
      "공정": 7908,
      "194": 7909,
      "박근": 7910,
      "학년": 7911,
      "그게": 7912,
      "대체": 7913,
      "임금": 7914,
      "만족": 7915,
      "전했": 7916,
      "포인트": 7917,
      "of": 7918,
      "혼자": 7919,
      "동물": 7920,
      "갈등": 7921,
      "가르": 7922,
      "공무원": 7923,
      "제안": 7924,
      "특징": 7925,
      "속도": 7926,
      "제조": 7927,
      "민간": 7928,
      "법원": 7929,
      "올리": 7930,
      "의지": 7931,
      "정의": 7932,
      "야구": 7933,
      "권력": 7934,
      "건축": 7935,
      "보통": 7936,
      "연속": 7937,
      "남북": 7938,
      "##다고": 7939,
      "공항": 7940,
      "오르": 7941,
      "약속": 7942,
      "박근혜": 7943,
      "므로": 7944,
      "고요": 7945,
      "영상": 7946,
      "려면": 7947,
      "지배": 7948,
      "##ed": 7949,
      "화장": 7950,
      "일자리": 7951,
      "아름다": 7952,
      "협상": 7953,
      "보유": 7954,
      "요소": 7955,
      "그리스": 7956,
      "노인": 7957,
      "특정": 7958,
      "변호": 7959,
      "불구": 7960,
      "영역": 7961,
      "이거": 7962,
      "겨울": 7963,
      "스타일": 7964,
      "외교": 7965,
      "식품": 7966,
      "성격": 7967,
      "달라": 7968,
      "훨씬": 7969,
      "철학": 7970,
      "선언": 7971,
      "항상": 7972,
      "##은행": 7973,
      "당연": 7974,
      "졸업": 7975,
      "매일": 7976,
      "000": 7977,
      "최소": 7978,
      "축제": 7979,
      "통한": 7980,
      "회원": 7981,
      "내놓": 7982,
      "알려졌": 7983,
      "도전": 7984,
      "방침": 7985,
      "##페인": 7986,
      "2007": 7987,
      "미술": 7988,
      "원칙": 7989,
      "##스타": 7990,
      "재미": 7991,
      "호텔": 7992,
      "연구원": 7993,
      "스트": 7994,
      "나서": 7995,
      "절차": 7996,
      "강력": 7997,
      "죽음": 7998,
      "께서": 7999,
      "진정": 8000,
      "대학교": 8001,
      "혁명": 8002,
      "불안": 8003,
      "심리": 8004,
      "경북": 8005,
      "##어진": 8006,
      "바다": 8007,
      "전해": 8008,
      "둘러": 8009,
      "유통": 8010,
      "특성": 8011,
      "저녁": 8012,
      "은데": 8013,
      "하락": 8014,
      "물질": 8015,
      "##ㅋㅋ": 8016,
      "토론": 8017,
      "바라보": 8018,
      "하이": 8019,
      "설계": 8020,
      "홍보": 8021,
      "중소기업": 8022,
      "수술": 8023,
      "소통": 8024,
      "사항": 8025,
      "만약": 8026,
      "빠져": 8027,
      "마리": 8028,
      "불러": 8029,
      "##20": 8030,
      "그러니까": 8031,
      "##스코": 8032,
      "##리카": 8033,
      "##다가": 8034,
      "갑자기": 8035,
      "시각": 8036,
      "총리": 8037,
      "나누": 8038,
      "굉장": 8039,
      "##BC": 8040,
      "조차": 8041,
      "뉴스": 8042,
      "바탕": 8043,
      "창조": 8044,
      "불리": 8045,
      "소유": 8046,
      "절대": 8047,
      "##프트": 8048,
      "기분": 8049,
      "접근": 8050,
      "엄청": 8051,
      "스러운": 8052,
      "자치": 8053,
      "실적": 8054,
      "##le": 8055,
      "버스": 8056,
      "##러스": 8057,
      "대답": 8058,
      "더불": 8059,
      "인수": 8060,
      "사태": 8061,
      "원장": 8062,
      "열리": 8063,
      "체육": 8064,
      "##요일": 8065,
      "측면": 8066,
      "하나님": 8067,
      "신고": 8068,
      "고개": 8069,
      "마케": 8070,
      "근로": 8071,
      "초기": 8072,
      "경쟁력": 8073,
      "여야": 8074,
      "회담": 8075,
      "근무": 8076,
      "무역": 8077,
      "유리": 8078,
      "봉사": 8079,
      "언급": 8080,
      "의혹": 8081,
      "재산": 8082,
      "직장": 8083,
      "그래도": 8084,
      "내리": 8085,
      "청소년": 8086,
      "삼성전자": 8087,
      "불법": 8088,
      "사전": 8089,
      "수원": 8090,
      "##니아": 8091,
      "주의": 8092,
      "##od": 8093,
      "차별": 8094,
      "프로젝": 8095,
      "태도": 8096,
      "원래": 8097,
      "통과": 8098,
      "알아": 8099,
      "장소": 8100,
      "빨리": 8101,
      "으려": 8102,
      "골프": 8103,
      "##as": 8104,
      "창업": 8105,
      "유일": 8106,
      "소식": 8107,
      "돌아가": 8108,
      "2016": 8109,
      "취업": 8110,
      "자녀": 8111,
      "수업": 8112,
      "##나무": 8113,
      "##re": 8114,
      "고통": 8115,
      "##ou": 8116,
      "촬영": 8117,
      "여론": 8118,
      "아프": 8119,
      "거부": 8120,
      "근거": 8121,
      "프로젝트": 8122,
      "덧붙": 8123,
      "굉장히": 8124,
      "올랐": 8125,
      "45": 8126,
      "마케팅": 8127,
      "강원": 8128,
      "범죄": 8129,
      "구속": 8130,
      "계기": 8131,
      "가리": 8132,
      "생기": 8133,
      "중단": 8134,
      "인력": 8135,
      "이탈": 8136,
      "작년": 8137,
      "주문": 8138,
      "약간": 8139,
      "지키": 8140,
      "된다는": 8141,
      "됩니다": 8142,
      "완전히": 8143,
      "변경": 8144,
      "는데요": 8145,
      "신뢰": 8146,
      "36": 8147,
      "출발": 8148,
      "포기": 8149,
      "법인": 8150,
      "the": 8151,
      "##의원": 8152,
      "완성": 8153,
      "일까": 8154,
      "타이": 8155,
      "조합": 8156,
      "for": 8157,
      "의한": 8158,
      "심각": 8159,
      "제일": 8160,
      "인근": 8161,
      "in": 8162,
      "누가": 8163,
      "잠시": 8164,
      "확정": 8165,
      "##니스": 8166,
      "33": 8167,
      "심사": 8168,
      "쇼핑": 8169,
      "달성": 8170,
      "##이드": 8171,
      "드리": 8172,
      "과제": 8173,
      "표정": 8174,
      "부부": 8175,
      "300": 8176,
      "##ation": 8177,
      "컴퓨": 8178,
      "이란": 8179,
      "효율": 8180,
      "이때": 8181,
      "전투": 8182,
      "본다": 8183,
      "대하": 8184,
      "1000": 8185,
      "제출": 8186,
      "나온다": 8187,
      "외부": 8188,
      "시리": 8189,
      "세월": 8190,
      "김정": 8191,
      "향후": 8192,
      "동일": 8193,
      "##심히": 8194,
      "안타": 8195,
      "바꾸": 8196,
      "발언": 8197,
      "등급": 8198,
      "교과": 8199,
      "32": 8200,
      "다리": 8201,
      "브라": 8202,
      "금액": 8203,
      "화학": 8204,
      "연금": 8205,
      "금지": 8206,
      "##무리": 8207,
      "커피": 8208,
      "바뀌": 8209,
      "지사": 8210,
      "했으나": 8211,
      "비중": 8212,
      "##ㅠㅠ": 8213,
      "강한": 8214,
      "형식": 8215,
      "나섰": 8216,
      "온라인": 8217,
      "노동자": 8218,
      "본인": 8219,
      "텔레": 8220,
      "나머": 8221,
      "달려": 8222,
      "향해": 8223,
      "193": 8224,
      "소송": 8225,
      "우주": 8226,
      "대사": 8227,
      "나머지": 8228,
      "법률": 8229,
      "으니까": 8230,
      "해양": 8231,
      "수용": 8232,
      "전형": 8233,
      "살아": 8234,
      "신용": 8235,
      "실천": 8236,
      "가량": 8237,
      "장면": 8238,
      "주가": 8239,
      "저희": 8240,
      "임대": 8241,
      "요리": 8242,
      "헌법": 8243,
      "##서관": 8244,
      "컴퓨터": 8245,
      "오랜": 8246,
      "km": 8247,
      "변호사": 8248,
      "잖아요": 8249,
      "가득": 8250,
      "배치": 8251,
      "앞두": 8252,
      "마시": 8253,
      "느껴": 8254,
      "전남": 8255,
      "도착": 8256,
      "베이": 8257,
      "상담": 8258,
      "예방": 8259,
      "밝혀": 8260,
      "2006": 8261,
      "철도": 8262,
      "계열": 8263,
      "##다보": 8264,
      "##ent": 8265,
      "시킬": 8266,
      "데이터": 8267,
      "재단": 8268,
      "당국": 8269,
      "눈물": 8270,
      "그랬": 8271,
      "전력": 8272,
      "할인": 8273,
      "스마트폰": 8274,
      "##거운": 8275,
      "90": 8276,
      "의무": 8277,
      "주인공": 8278,
      "마무리": 8279,
      "여러분": 8280,
      "##벤트": 8281,
      "혜택": 8282,
      "당선": 8283,
      "미치": 8284,
      "레이": 8285,
      "로운": 8286,
      "리더": 8287,
      "카페": 8288,
      "이벤트": 8289,
      "버렸": 8290,
      "매년": 8291,
      "완전": 8292,
      "수학": 8293,
      "출전": 8294,
      "권리": 8295,
      "상징": 8296,
      "상상": 8297,
      "강남": 8298,
      "독자": 8299,
      "자격": 8300,
      "##텐츠": 8301,
      "플레이": 8302,
      "중간": 8303,
      "시리즈": 8304,
      "연구소": 8305,
      "5000": 8306,
      "박사": 8307,
      "부여": 8308,
      "배경": 8309,
      "떨어지": 8310,
      "태양": 8311,
      "창출": 8312,
      "지수": 8313,
      "그럴": 8314,
      "열심히": 8315,
      "기다리": 8316,
      "충분히": 8317,
      "전반": 8318,
      "펼쳐": 8319,
      "의하": 8320,
      "부상": 8321,
      "들여": 8322,
      "미디어": 8323,
      "매장": 8324,
      "##ac": 8325,
      "라인": 8326,
      "그러면": 8327,
      "통화": 8328,
      "놀라": 8329,
      "요인": 8330,
      "투입": 8331,
      "전용": 8332,
      "특수": 8333,
      "케이": 8334,
      "34": 8335,
      "##학생": 8336,
      "작성": 8337,
      "인터뷰": 8338,
      "이른": 8339,
      "식사": 8340,
      "아도": 8341,
      "종류": 8342,
      "직업": 8343,
      "의장": 8344,
      "##고기": 8345,
      "향상": 8346,
      "체결": 8347,
      "가수": 8348,
      "평소": 8349,
      "##라도": 8350,
      "그린": 8351,
      "38": 8352,
      "겁니다": 8353,
      "할지": 8354,
      "월드컵": 8355,
      "동아": 8356,
      "자는": 8357,
      "부장": 8358,
      "서울시": 8359,
      "메시": 8360,
      "상호": 8361,
      "실험": 8362,
      "학부": 8363,
      "연장": 8364,
      "을지": 8365,
      "위하": 8366,
      "집행": 8367,
      "채용": 8368,
      "덧붙였": 8369,
      "논리": 8370,
      "어려움": 8371,
      "인한": 8372,
      "신규": 8373,
      "통해서": 8374,
      "##란드": 8375,
      "아무리": 8376,
      "KT": 8377,
      "연대": 8378,
      "흔들": 8379,
      "부대": 8380,
      "걸쳐": 8381,
      "빠르": 8382,
      "전하": 8383,
      "뭔가": 8384,
      "이어지": 8385,
      "뉴욕": 8386,
      "아빠": 8387,
      "2017": 8388,
      "나선": 8389,
      "긍정": 8390,
      "##화점": 8391,
      "네트": 8392,
      "동의": 8393,
      "확산": 8394,
      "기구": 8395,
      "##us": 8396,
      "미리": 8397,
      "공유": 8398,
      "설정": 8399,
      "벗어나": 8400,
      "시점": 8401,
      "인권": 8402,
      "구입": 8403,
      "국립": 8404,
      "국방": 8405,
      "무기": 8406,
      "당하": 8407,
      "웃음": 8408,
      "연출": 8409,
      "복합": 8410,
      "제국": 8411,
      "기계": 8412,
      "##간다": 8413,
      "2005": 8414,
      "구나": 8415,
      "한나라": 8416,
      "한나라당": 8417,
      "구분": 8418,
      "2018": 8419,
      "괜찮": 8420,
      "콘텐츠": 8421,
      "사이트": 8422,
      "반복": 8423,
      "사정": 8424,
      "진단": 8425,
      "꾸준": 8426,
      "수단": 8427,
      "종목": 8428,
      "보상": 8429,
      "수석": 8430,
      "기여": 8431,
      "물건": 8432,
      "투자자": 8433,
      "패션": 8434,
      "문재": 8435,
      "매력": 8436,
      "폭력": 8437,
      "##난다": 8438,
      "사과": 8439,
      "알리": 8440,
      "한계": 8441,
      "아닐": 8442,
      "국회의원": 8443,
      "맞춰": 8444,
      "야당": 8445,
      "토지": 8446,
      "실현": 8447,
      "기울": 8448,
      "불편": 8449,
      "철저": 8450,
      "흐름": 8451,
      "##ro": 8452,
      "육성": 8453,
      "구역": 8454,
      "나중": 8455,
      "##ag": 8456,
      "순위": 8457,
      "판결": 8458,
      "휴대": 8459,
      "연계": 8460,
      "부지": 8461,
      "위반": 8462,
      "수많": 8463,
      "그거": 8464,
      "점점": 8465,
      "출판": 8466,
      "선진": 8467,
      "아름다운": 8468,
      "##바일": 8469,
      "도와": 8470,
      "예비": 8471,
      "고등학교": 8472,
      "명령": 8473,
      "##일보": 8474,
      "나갈": 8475,
      "올려": 8476,
      "다며": 8477,
      "표시": 8478,
      "모바일": 8479,
      "37": 8480,
      "균형": 8481,
      "확장": 8482,
      "살펴보": 8483,
      "구요": 8484,
      "국토": 8485,
      "채권": 8486,
      "장치": 8487,
      "보고서": 8488,
      "똑같": 8489,
      "추정": 8490,
      "##워크": 8491,
      "자랑": 8492,
      "이탈리아": 8493,
      "와서": 8494,
      "2004": 8495,
      "분류": 8496,
      "학원": 8497,
      "농업": 8498,
      "가을": 8499,
      "주말": 8500,
      "비행": 8501,
      "지상": 8502,
      "스토": 8503,
      "연주": 8504,
      "갖추": 8505,
      "교체": 8506,
      "단위": 8507,
      "적절": 8508,
      "대변": 8509,
      "생태": 8510,
      "##ula": 8511,
      "고기": 8512,
      "무료": 8513,
      "면적": 8514,
      "로마": 8515,
      "극복": 8516,
      "교육청": 8517,
      "비밀": 8518,
      "결코": 8519,
      "통제": 8520,
      "증거": 8521,
      "form": 8522,
      "입주": 8523,
      "아닌가": 8524,
      "든지": 8525,
      "의도": 8526,
      "소장": 8527,
      "지시": 8528,
      "##반도": 8529,
      "무리": 8530,
      "청구": 8531,
      "된다고": 8532,
      "였으며": 8533,
      "위협": 8534,
      "허용": 8535,
      "마저": 8536,
      "총선": 8537,
      "는다는": 8538,
      "이명": 8539,
      "모아": 8540,
      "가까운": 8541,
      "그곳": 8542,
      "고양": 8543,
      "계산": 8544,
      "시인": 8545,
      "디지": 8546,
      "줄이": 8547,
      "55": 8548,
      "추구": 8549,
      "의심": 8550,
      "기독": 8551,
      "데뷔": 8552,
      "주체": 8553,
      "범위": 8554,
      "할머니": 8555,
      "시선": 8556,
      "편지": 8557,
      "봐야": 8558,
      "보건": 8559,
      "크기": 8560,
      "간단": 8561,
      "2002": 8562,
      "정비": 8563,
      "경향": 8564,
      "##ad": 8565,
      "불가": 8566,
      "수정": 8567,
      "상당히": 8568,
      "에스": 8569,
      "물리": 8570,
      "formula": 8571,
      "백화점": 8572,
      "관객": 8573,
      "노선": 8574,
      "발행": 8575,
      "and": 8576,
      "메시지": 8577,
      "마이": 8578,
      "운용": 8579,
      "모집": 8580,
      "##르크": 8581,
      "충격": 8582,
      "당장": 8583,
      "민주주의": 8584,
      "고속": 8585,
      "누군": 8586,
      "긴장": 8587,
      "##페이지": 8588,
      "진보": 8589,
      "동기": 8590,
      "했었": 8591,
      "과연": 8592,
      "베트": 8593,
      "홈페이지": 8594,
      "아동": 8595,
      "기원": 8596,
      "가까이": 8597,
      "정규": 8598,
      "절반": 8599,
      "연간": 8600,
      "The": 8601,
      "##id": 8602,
      "인하": 8603,
      "장비": 8604,
      "강의": 8605,
      "운전": 8606,
      "두려": 8607,
      "오픈": 8608,
      "분리": 8609,
      "이달": 8610,
      "디지털": 8611,
      "뿌리": 8612,
      "다섯": 8613,
      "임명": 8614,
      "전개": 8615,
      "전년": 8616,
      "##ig": 8617,
      "반발": 8618,
      "떠올": 8619,
      "예전": 8620,
      "##가락": 8621,
      "##환경": 8622,
      "활약": 8623,
      "실장": 8624,
      "모임": 8625,
      "맛집": 8626,
      "원자": 8627,
      "메이": 8628,
      "움직이": 8629,
      "전부": 8630,
      "편의": 8631,
      "그건": 8632,
      "바닥": 8633,
      "아르": 8634,
      "진실": 8635,
      "점검": 8636,
      "세트": 8637,
      "방지": 8638,
      "원내": 8639,
      "피해자": 8640,
      "한반도": 8641,
      "아기": 8642,
      "191": 8643,
      "39": 8644,
      "모여": 8645,
      "과장": 8646,
      "인민": 8647,
      "늘어나": 8648,
      "들어갔": 8649,
      "네트워크": 8650,
      "모른다": 8651,
      "##다면": 8652,
      "요금": 8653,
      "자극": 8654,
      "기독교": 8655,
      "해소": 8656,
      "제거": 8657,
      "48": 8658,
      "근대": 8659,
      "따뜻": 8660,
      "새롭": 8661,
      "소프트": 8662,
      "공화": 8663,
      "##ec": 8664,
      "구간": 8665,
      "완화": 8666,
      "세금": 8667,
      "고급": 8668,
      "교류": 8669,
      "자율": 8670,
      "출마": 8671,
      "유형": 8672,
      "결합": 8673,
      "ㅎㅎ": 8674,
      "기타": 8675,
      "수수": 8676,
      "일제": 8677,
      "유사": 8678,
      "동생": 8679,
      "마침": 8680,
      "지점": 8681,
      "생긴": 8682,
      "자식": 8683,
      "IT": 8684,
      "폐지": 8685,
      "인재": 8686,
      "KBS": 8687,
      "다소": 8688,
      "##럼프": 8689,
      "즐기": 8690,
      "궁금": 8691,
      "돌려": 8692,
      "지휘": 8693,
      "총장": 8694,
      "예수": 8695,
      "크리스": 8696,
      "부처": 8697,
      "안보": 8698,
      "결론": 8699,
      "단어": 8700,
      "보조": 8701,
      "벌이": 8702,
      "2003": 8703,
      "합리": 8704,
      "이건": 8705,
      "가로": 8706,
      "##메라": 8707,
      "흘러": 8708,
      "공약": 8709,
      "대단": 8710,
      "문자": 8711,
      "##em": 8712,
      "65": 8713,
      "강하": 8714,
      "대우": 8715,
      "다이어": 8716,
      "공기": 8717,
      "비난": 8718,
      "미사": 8719,
      "42": 8720,
      "별로": 8721,
      "개국": 8722,
      "왜냐": 8723,
      "베트남": 8724,
      "정기": 8725,
      "다이": 8726,
      "고향": 8727,
      "##산물": 8728,
      "학자": 8729,
      "후반": 8730,
      "통하": 8731,
      "어깨": 8732,
      "경계": 8733,
      "##비아": 8734,
      "##un": 8735,
      "최저": 8736,
      "밝히": 8737,
      "메뉴": 8738,
      "실질": 8739,
      "지도자": 8740,
      "창원": 8741,
      "상관": 8742,
      "캐릭": 8743,
      "실력": 8744,
      "명예": 8745,
      "오늘날": 8746,
      "예측": 8747,
      "싸움": 8748,
      "끝나": 8749,
      "들어오": 8750,
      "주일": 8751,
      "##러운": 8752,
      "으므로": 8753,
      "투쟁": 8754,
      "정체": 8755,
      "어쩌": 8756,
      "192": 8757,
      "지자": 8758,
      "나아가": 8759,
      "공동체": 8760,
      "움직임": 8761,
      "##ot": 8762,
      "어떠": 8763,
      "##어날": 8764,
      "강제": 8765,
      "인증": 8766,
      "경주": 8767,
      "세우": 8768,
      "상처": 8769,
      "관점": 8770,
      "무시": 8771,
      "캐릭터": 8772,
      "부품": 8773,
      "MBC": 8774,
      "주차": 8775,
      "내일": 8776,
      "장점": 8777,
      "둘째": 8778,
      "그걸": 8779,
      "근본": 8780,
      "천만": 8781,
      "관광객": 8782,
      "번호": 8783,
      "비상": 8784,
      "공단": 8785,
      "연습": 8786,
      "43": 8787,
      "41": 8788,
      "이래": 8789,
      "김영": 8790,
      "앨범": 8791,
      "군대": 8792,
      "동료": 8793,
      "질환": 8794,
      "##ow": 8795,
      "자전": 8796,
      "희생": 8797,
      "어울": 8798,
      "이내": 8799,
      "클럽": 8800,
      "에게서": 8801,
      "힘든": 8802,
      "빠른": 8803,
      "나올": 8804,
      "##라스": 8805,
      "최선": 8806,
      "해졌": 8807,
      "나요": 8808,
      "부드": 8809,
      "만난": 8810,
      "면은": 8811,
      "거듭": 8812,
      "따로": 8813,
      "##말로": 8814,
      "트럼프": 8815,
      "벌써": 8816,
      "점수": 8817,
      "응답": 8818,
      "중학교": 8819,
      "75": 8820,
      "그려": 8821,
      "완벽": 8822,
      "끌어": 8823,
      "덕분": 8824,
      "국장": 8825,
      "어찌": 8826,
      "이성": 8827,
      "식당": 8828,
      "부탁": 8829,
      "수립": 8830,
      "##란다": 8831,
      "파괴": 8832,
      "투수": 8833,
      "공천": 8834,
      "알려져": 8835,
      "##ter": 8836,
      "거대": 8837,
      "복잡": 8838,
      "세워": 8839,
      "거주": 8840,
      "공감": 8841,
      "별도": 8842,
      "투어": 8843,
      "기부": 8844,
      "탄생": 8845,
      "역량": 8846,
      "멤버": 8847,
      "코리아": 8848,
      "처벌": 8849,
      "블랙": 8850,
      "도서관": 8851,
      "이외": 8852,
      "이기": 8853,
      "박물": 8854,
      "한데": 8855,
      "재료": 8856,
      "게다가": 8857,
      "할까": 8858,
      "슈퍼": 8859,
      "올렸": 8860,
      "##르트": 8861,
      "표준": 8862,
      "누군가": 8863,
      "정해": 8864,
      "44": 8865,
      "품질": 8866,
      "동원": 8867,
      "##아지": 8868,
      "##리오": 8869,
      "채널": 8870,
      "머물": 8871,
      "회견": 8872,
      "손해": 8873,
      "충남": 8874,
      "배출": 8875,
      "단일": 8876,
      "사업자": 8877,
      "새벽": 8878,
      "이명박": 8879,
      "지자체": 8880,
      "매각": 8881,
      "발달": 8882,
      "황제": 8883,
      "시위": 8884,
      "스페인": 8885,
      "입학": 8886,
      "필수": 8887,
      "보냈": 8888,
      "다루": 8889,
      "스테": 8890,
      "##어져": 8891,
      "1990": 8892,
      "전면": 8893,
      "애플": 8894,
      "평생": 8895,
      "##메달": 8896,
      "지분": 8897,
      "##사자": 8898,
      "문재인": 8899,
      "##구요": 8900,
      "##리트": 8901,
      "파리": 8902,
      "조용": 8903,
      "아닙": 8904,
      "제목": 8905,
      "승부": 8906,
      "들려": 8907,
      "올라가": 8908,
      "어제": 8909,
      "46": 8910,
      "연극": 8911,
      "직후": 8912,
      "내세": 8913,
      "이웃": 8914,
      "취임": 8915,
      "공산": 8916,
      "협약": 8917,
      "주위": 8918,
      "안내": 8919,
      "##준다": 8920,
      "물러": 8921,
      "실수": 8922,
      "다수": 8923,
      "박물관": 8924,
      "카메라": 8925,
      "3000": 8926,
      "개편": 8927,
      "##공사": 8928,
      "국무": 8929,
      "집안": 8930,
      "그만큼": 8931,
      "도덕": 8932,
      "대안": 8933,
      "임시": 8934,
      "개입": 8935,
      "거짓": 8936,
      "대리": 8937,
      "감안": 8938,
      "건너": 8939,
      "400": 8940,
      "꾸준히": 8941,
      "가스": 8942,
      "분명히": 8943,
      "선고": 8944,
      "주년": 8945,
      "원리": 8946,
      "발굴": 8947,
      "친환경": 8948,
      "근로자": 8949,
      "47": 8950,
      "홈런": 8951,
      "한화": 8952,
      "소녀": 8953,
      "내렸": 8954,
      "한국인": 8955,
      "관람": 8956,
      "뛰어": 8957,
      "##um": 8958,
      "옮겨": 8959,
      "갖춘": 8960,
      "눈길": 8961,
      "통계": 8962,
      "이자": 8963,
      "유도": 8964,
      "처분": 8965,
      "동네": 8966,
      "2001": 8967,
      "##오르": 8968,
      "진입": 8969,
      "양성": 8970,
      "자전거": 8971,
      "##os": 8972,
      "언제나": 8973,
      "##하면": 8974,
      "공모": 8975,
      "구단": 8976,
      "군요": 8977,
      "후원": 8978,
      "저축": 8979,
      "##회장": 8980,
      "미소": 8981,
      "비록": 8982,
      "대법": 8983,
      "통상": 8984,
      "사실상": 8985,
      "작전": 8986,
      "맞추": 8987,
      "좋아": 8988,
      "감각": 8989,
      "석유": 8990,
      "아이디어": 8991,
      "챔피": 8992,
      "비즈": 8993,
      "일종": 8994,
      "영양": 8995,
      "프리미": 8996,
      "법안": 8997,
      "발휘": 8998,
      "승인": 8999,
      "52": 9000,
      "진다": 9001,
      "부채": 9002,
      "형사": 9003,
      "연락": 9004,
      "편성": 9005,
      "49": 9006,
      "##리어": 9007,
      "정원": 9008,
      "대기": 9009,
      "돼야": 9010,
      "화려": 9011,
      "권한": 9012,
      "유가": 9013,
      "##시오": 9014,
      "보증": 9015,
      "현대차": 9016,
      "성분": 9017,
      "개방": 9018,
      "아무런": 9019,
      "조기": 9020,
      "깊이": 9021,
      "언니": 9022,
      "서울대": 9023,
      "멀리": 9024,
      "지내": 9025,
      "더라고": 9026,
      "떨어진": 9027,
      "출범": 9028,
      "저자": 9029,
      "질서": 9030,
      "인류": 9031,
      "떨어져": 9032,
      "고서": 9033,
      "방어": 9034,
      "키우": 9035,
      "학부모": 9036,
      "##ay": 9037,
      "공포": 9038,
      "바르": 9039,
      "자면": 9040,
      "조각": 9041,
      "미군": 9042,
      "짜리": 9043,
      "##센트": 9044,
      "운행": 9045,
      "##TA": 9046,
      "다녀": 9047,
      "나눠": 9048,
      "기도": 9049,
      "##프라": 9050,
      "190": 9051,
      "아울": 9052,
      "촉구": 9053,
      "이승": 9054,
      "수능": 9055,
      "매체": 9056,
      "버린": 9057,
      "폭발": 9058,
      "불만": 9059,
      "냄새": 9060,
      "지닌": 9061,
      "51": 9062,
      "##아버지": 9063,
      "아까": 9064,
      "##지어": 9065,
      "CE": 9066,
      "조절": 9067,
      "건립": 9068,
      "신체": 9069,
      "하고": 9070,
      "##로스": 9071,
      "가졌": 9072,
      "수비": 9073,
      "##뮤니": 9074,
      "부자": 9075,
      "고교": 9076,
      "소년": 9077,
      "커뮤니": 9078,
      "너무나": 9079,
      "팀장": 9080,
      "그저": 9081,
      "허리": 9082,
      "전공": 9083,
      "사내": 9084,
      "포항": 9085,
      "여유": 9086,
      "그날": 9087,
      "캠프": 9088,
      "생겼": 9089,
      "허가": 9090,
      "데이": 9091,
      "오리": 9092,
      "종이": 9093,
      "생겨": 9094,
      "윤리": 9095,
      "초대": 9096,
      "KB": 9097,
      "당연히": 9098,
      "이스": 9099,
      "원전": 9100,
      "##ir": 9101,
      "설득": 9102,
      "손실": 9103,
      "나갔": 9104,
      "점차": 9105,
      "시내": 9106,
      "##대표": 9107,
      "사무실": 9108,
      "투명": 9109,
      "##ve": 9110,
      "##og": 9111,
      "뛰어난": 9112,
      "타임": 9113,
      "주거": 9114,
      "생존": 9115,
      "만났": 9116,
      "##바로": 9117,
      "혹시": 9118,
      "본질": 9119,
      "##학자": 9120,
      "그러므로": 9121,
      "초반": 9122,
      "기에": 9123,
      "논문": 9124,
      "##버스": 9125,
      "흥미": 9126,
      "서구": 9127,
      "훌륭": 9128,
      "못해": 9129,
      "테이": 9130,
      "개별": 9131,
      "성인": 9132,
      "시티": 9133,
      "엄청난": 9134,
      "이른바": 9135,
      "개성": 9136,
      "당했": 9137,
      "##ce": 9138,
      "걸어": 9139,
      "사유": 9140,
      "##ess": 9141,
      "##어졌": 9142,
      "제정": 9143,
      "53": 9144,
      "##피스": 9145,
      "악화": 9146,
      "놀이": 9147,
      "측정": 9148,
      "검증": 9149,
      "St": 9150,
      "계층": 9151,
      "현금": 9152,
      "보낸": 9153,
      "증상": 9154,
      "취지": 9155,
      "혼란": 9156,
      "습관": 9157,
      "업종": 9158,
      "신설": 9159,
      "날씨": 9160,
      "어른": 9161,
      "##회사": 9162,
      "##케이션": 9163,
      "##ers": 9164,
      "복귀": 9165,
      "주관": 9166,
      "곳곳": 9167,
      "선호": 9168,
      "기소": 9169,
      "일찍": 9170,
      "담배": 9171,
      "옛날": 9172,
      "다행": 9173,
      "##ri": 9174,
      "편집": 9175,
      "치열": 9176,
      "관찰": 9177,
      "신화": 9178,
      "인공": 9179,
      "추세": 9180,
      "물량": 9181,
      "왜냐하면": 9182,
      "보안": 9183,
      "심지어": 9184,
      "취소": 9185,
      "대장": 9186,
      "빠지": 9187,
      "부서": 9188,
      "뮤지": 9189,
      "첨단": 9190,
      "상업": 9191,
      "150": 9192,
      "이재": 9193,
      "오빠": 9194,
      "유기": 9195,
      "반도": 9196,
      "54": 9197,
      "접수": 9198,
      "득점": 9199,
      "화면": 9200,
      "아예": 9201,
      "알려진": 9202,
      "광역": 9203,
      "형제": 9204,
      "규칙": 9205,
      "##op": 9206,
      "동반": 9207,
      "역대": 9208,
      "동부": 9209,
      "극장": 9210,
      "자고": 9211,
      "고정": 9212,
      "첫째": 9213,
      "위안": 9214,
      "나타내": 9215,
      "고위": 9216,
      "엔진": 9217,
      "상반기": 9218,
      "학과": 9219,
      "세포": 9220,
      "아우": 9221,
      "다이어트": 9222,
      "신라": 9223,
      "열정": 9224,
      "그니까": 9225,
      "에이": 9226,
      "아쉬": 9227,
      "거두": 9228,
      "1980": 9229,
      "활발": 9230,
      "식물": 9231,
      "풍부": 9232,
      "화재": 9233,
      "근처": 9234,
      "미사일": 9235,
      "지니": 9236,
      "클래": 9237,
      "발사": 9238,
      "기기": 9239,
      "느낄": 9240,
      "학문": 9241,
      "감동": 9242,
      "##ut": 9243,
      "부회장": 9244,
      "##드리": 9245,
      "실행": 9246,
      "경선": 9247,
      "56": 9248,
      "의문": 9249,
      "고대": 9250,
      "불교": 9251,
      "합격": 9252,
      "양식": 9253,
      "취하": 9254,
      "비즈니스": 9255,
      "바꿔": 9256,
      "줄어들": 9257,
      "하반기": 9258,
      "##터리": 9259,
      "제재": 9260,
      "화제": 9261,
      "결승": 9262,
      "포스코": 9263,
      "##으니": 9264,
      "용어": 9265,
      "##다른": 9266,
      "운명": 9267,
      "텐데": 9268,
      "##나다": 9269,
      "남녀": 9270,
      "설비": 9271,
      "##비전": 9272,
      "비전": 9273,
      "유엔": 9274,
      "스트레스": 9275,
      "내게": 9276,
      "지하철": 9277,
      "소방": 9278,
      "안녕": 9279,
      "타자": 9280,
      "이랑": 9281,
      "부진": 9282,
      "증명": 9283,
      "##러리": 9284,
      "상장": 9285,
      "주력": 9286,
      "생물": 9287,
      "##웨어": 9288,
      "당초": 9289,
      "의존": 9290,
      "경력": 9291,
      "몰랐": 9292,
      "화장품": 9293,
      "압박": 9294,
      "조심": 9295,
      "끊임": 9296,
      "개막": 9297,
      "돌아오": 9298,
      "##⠀⠀": 9299,
      "저항": 9300,
      "즐길": 9301,
      "##다란": 9302,
      "돌파": 9303,
      "축소": 9304,
      "경상": 9305,
      "여인": 9306,
      "강원도": 9307,
      "##ood": 9308,
      "심장": 9309,
      "살아가": 9310,
      "공통": 9311,
      "로써": 9312,
      "최대한": 9313,
      "네네": 9314,
      "자라": 9315,
      "인정받": 9316,
      "상대방": 9317,
      "순수": 9318,
      "사법": 9319,
      "서민": 9320,
      "59": 9321,
      "참고": 9322,
      "달하": 9323,
      "단독": 9324,
      "해방": 9325,
      "광장": 9326,
      "남부": 9327,
      "##ap": 9328,
      "던지": 9329,
      "깨끗": 9330,
      "녹색": 9331,
      "못할": 9332,
      "매수": 9333,
      "흐르": 9334,
      "전제": 9335,
      "장군": 9336,
      "저지": 9337,
      "단순히": 9338,
      "흔히": 9339,
      "##oc": 9340,
      "##티브": 9341,
      "걸음": 9342,
      "다운": 9343,
      "소화": 9344,
      "신호": 9345,
      "1999": 9346,
      "키워": 9347,
      "숫자": 9348,
      "명확": 9349,
      "판사": 9350,
      "크림": 9351,
      "##마자": 9352,
      "라디오": 9353,
      "In": 9354,
      "파견": 9355,
      "오염": 9356,
      "채택": 9357,
      "대변인": 9358,
      "단기": 9359,
      "1998": 9360,
      "컬러": 9361,
      "전날": 9362,
      "드러내": 9363,
      "##다니": 9364,
      "85": 9365,
      "가게": 9366,
      "발매": 9367,
      "선배": 9368,
      "매매": 9369,
      "##ww": 9370,
      "지향": 9371,
      "법정": 9372,
      "분노": 9373,
      "매달": 9374,
      "모자": 9375,
      "도쿄": 9376,
      "이루어지": 9377,
      "밝힌": 9378,
      "검색": 9379,
      "구하": 9380,
      "www": 9381,
      "자살": 9382,
      "돼지": 9383,
      "끝내": 9384,
      "지위": 9385,
      "편안": 9386,
      "점심": 9387,
      "맞춤": 9388,
      "영원": 9389,
      "획득": 9390,
      "64": 9391,
      "세종": 9392,
      "수십": 9393,
      "##공업": 9394,
      "순환": 9395,
      "이슈": 9396,
      "재무": 9397,
      "완료": 9398,
      "번역": 9399,
      "원내대표": 9400,
      "택시": 9401,
      "아울러": 9402,
      "파트": 9403,
      "성향": 9404,
      "선박": 9405,
      "재미있": 9406,
      "집회": 9407,
      "1997": 9408,
      "자꾸": 9409,
      "받아들이": 9410,
      "라운드": 9411,
      "시원": 9412,
      "서류": 9413,
      "여당": 9414,
      "자마자": 9415,
      "여건": 9416,
      "협의회": 9417,
      "사원": 9418,
      "58": 9419,
      "신분": 9420,
      "##세요": 9421,
      "찾아가": 9422,
      "57": 9423,
      "런던": 9424,
      "피하": 9425,
      "관측": 9426,
      "##직자": 9427,
      "살리": 9428,
      "취재": 9429,
      "이뤄지": 9430,
      "교과서": 9431,
      "바란다": 9432,
      "노무": 9433,
      "목숨": 9434,
      "인원": 9435,
      "스님": 9436,
      "##세대": 9437,
      "경고": 9438,
      "견해": 9439,
      "취득": 9440,
      "파이": 9441,
      "나쁜": 9442,
      "초청": 9443,
      "사령": 9444,
      "소중": 9445,
      "위주": 9446,
      "협정": 9447,
      "이행": 9448,
      "조작": 9449,
      "연방": 9450,
      "살인": 9451,
      "호흡": 9452,
      "육아": 9453,
      "퍼센트": 9454,
      "캐나다": 9455,
      "농민": 9456,
      "브라질": 9457,
      "개봉": 9458,
      "무상": 9459,
      "문장": 9460,
      "노출": 9461,
      "펼치": 9462,
      "##어도": 9463,
      "일어난": 9464,
      "대가": 9465,
      "com": 9466,
      "되게": 9467,
      "연말": 9468,
      "보관": 9469,
      "마주": 9470,
      "용기": 9471,
      "호주": 9472,
      "가난": 9473,
      "차단": 9474,
      "해운": 9475,
      "인프라": 9476,
      "대학생": 9477,
      "두산": 9478,
      "해진": 9479,
      "임원": 9480,
      "챔피언": 9481,
      "변동": 9482,
      "##구나": 9483,
      "정식": 9484,
      "##으면": 9485,
      "프레": 9486,
      "질병": 9487,
      "매입": 9488,
      "##교육": 9489,
      "선출": 9490,
      "걸리": 9491,
      "어쨌": 9492,
      "##ie": 9493,
      "자아": 9494,
      "맥주": 9495,
      "합병": 9496,
      "여수": 9497,
      "텔레비전": 9498,
      "의학": 9499,
      "점유": 9500,
      "##웨이": 9501,
      "조언": 9502,
      "문제점": 9503,
      "잠재": 9504,
      "호소": 9505,
      "비리": 9506,
      "본사": 9507,
      "신세": 9508,
      "##im": 9509,
      "독서": 9510,
      "기아": 9511,
      "지대": 9512,
      "상위": 9513,
      "물가": 9514,
      "만화": 9515,
      "보존": 9516,
      "솔직": 9517,
      "대립": 9518,
      "제약": 9519,
      "PC": 9520,
      "독특": 9521,
      "실업": 9522,
      "전세": 9523,
      "스토리": 9524,
      "드러나": 9525,
      "충돌": 9526,
      "오랫": 9527,
      "##친다": 9528,
      "##직원": 9529,
      "적합": 9530,
      "사단": 9531,
      "##란히": 9532,
      "연예": 9533,
      "사기": 9534,
      "일대": 9535,
      "백성": 9536,
      "##은이": 9537,
      "아프리카": 9538,
      "방해": 9539,
      "시사": 9540,
      "감시": 9541,
      "떨어졌": 9542,
      "가끔": 9543,
      "서양": 9544,
      "이사장": 9545,
      "꺼내": 9546,
      "포장": 9547,
      "홍콩": 9548,
      "음반": 9549,
      "총회": 9550,
      "당한": 9551,
      "##ity": 9552,
      "정치인": 9553,
      "##플레이": 9554,
      "Ch": 9555,
      "유니": 9556,
      "전북": 9557,
      "63": 9558,
      "회계": 9559,
      "##IA": 9560,
      "기지": 9561,
      "무릎": 9562,
      "CEO": 9563,
      "녀석": 9564,
      "특허": 9565,
      "도심": 9566,
      "아이템": 9567,
      "사물": 9568,
      "정착": 9569,
      "커다란": 9570,
      "미안": 9571,
      "면접": 9572,
      "2020": 9573,
      "교환": 9574,
      "연수": 9575,
      "수영": 9576,
      "가동": 9577,
      "천안": 9578,
      "사퇴": 9579,
      "소문": 9580,
      "저렴": 9581,
      "진술": 9582,
      "나름": 9583,
      "66": 9584,
      "조명": 9585,
      "##and": 9586,
      "몰라": 9587,
      "은퇴": 9588,
      "##NS": 9589,
      "오랫동안": 9590,
      "청장": 9591,
      "정하": 9592,
      "정지": 9593,
      "평등": 9594,
      "스위": 9595,
      "사라지": 9596,
      "에서부터": 9597,
      "침체": 9598,
      "밴드": 9599,
      "그리스도": 9600,
      "##카드": 9601,
      "경기장": 9602,
      "소수": 9603,
      "줘야": 9604,
      "느꼈": 9605,
      "##워서": 9606,
      "스피": 9607,
      "토대": 9608,
      "충청": 9609,
      "지주": 9610,
      "지명": 9611,
      "문서": 9612,
      "심판": 9613,
      "는다고": 9614,
      "심의": 9615,
      "이틀": 9616,
      "직전": 9617,
      "페이스": 9618,
      "##서트": 9619,
      "부과": 9620,
      "##조합": 9621,
      "브리": 9622,
      "고구": 9623,
      "무렵": 9624,
      "과목": 9625,
      "늘리": 9626,
      "##으로": 9627,
      "들어서": 9628,
      "상하": 9629,
      "마감": 9630,
      "FC": 9631,
      "수시": 9632,
      "무려": 9633,
      "##총리": 9634,
      "각자": 9635,
      "부위": 9636,
      "예고": 9637,
      "마침내": 9638,
      "계급": 9639,
      "소련": 9640,
      "상인": 9641,
      "##해서": 9642,
      "이념": 9643,
      "배제": 9644,
      "99": 9645,
      "자네": 9646,
      "답변": 9647,
      "##이너": 9648,
      "84": 9649,
      "경비": 9650,
      "초점": 9651,
      "만남": 9652,
      "커지": 9653,
      "유대": 9654,
      "왼쪽": 9655,
      "성남": 9656,
      "전원": 9657,
      "인용": 9658,
      "며칠": 9659,
      "였으나": 9660,
      "바이오": 9661,
      "에어": 9662,
      "피아": 9663,
      "공주": 9664,
      "묘사": 9665,
      "파크": 9666,
      "로봇": 9667,
      "즐거": 9668,
      "결제": 9669,
      "성능": 9670,
      "할아버지": 9671,
      "주주": 9672,
      "김치": 9673,
      "마르": 9674,
      "일으키": 9675,
      "몰려": 9676,
      "신앙": 9677,
      "##담회": 9678,
      "지나치": 9679,
      "계열사": 9680,
      "이라": 9681,
      "72": 9682,
      "농촌": 9683,
      "무한": 9684,
      "예약": 9685,
      "트리": 9686,
      "동양": 9687,
      "대결": 9688,
      "객관": 9689,
      "연맹": 9690,
      "대북": 9691,
      "##마디": 9692,
      "장사": 9693,
      "호남": 9694,
      "하여": 9695,
      "고소": 9696,
      "잇따": 9697,
      "고전": 9698,
      "잠깐": 9699,
      "##니어": 9700,
      "오바": 9701,
      "시청자": 9702,
      "##뜨리": 9703,
      "학기": 9704,
      "박정": 9705,
      "거론": 9706,
      "적자": 9707,
      "명칭": 9708,
      "풍경": 9709,
      "##스티": 9710,
      "61": 9711,
      "아무것": 9712,
      "부실": 9713,
      "출입": 9714,
      "연관": 9715,
      "600": 9716,
      "프리미엄": 9717,
      "간다": 9718,
      "##일리": 9719,
      "보완": 9720,
      "##로운": 9721,
      "강사": 9722,
      "목사": 9723,
      "창의": 9724,
      "##조건": 9725,
      "더라구요": 9726,
      "무서": 9727,
      "내내": 9728,
      "모으": 9729,
      "95": 9730,
      "지표": 9731,
      "고문": 9732,
      "조화": 9733,
      "가시": 9734,
      "진화": 9735,
      "타격": 9736,
      "태어났": 9737,
      "무게": 9738,
      "##연히": 9739,
      "신한": 9740,
      "아트": 9741,
      "원하": 9742,
      "여겨": 9743,
      "테마": 9744,
      "아니면": 9745,
      "환율": 9746,
      "##까요": 9747,
      "에다": 9748,
      "##ra": 9749,
      "대구시": 9750,
      "FTA": 9751,
      "도망": 9752,
      "한정": 9753,
      "늘어난": 9754,
      "겨우": 9755,
      "##로그": 9756,
      "접촉": 9757,
      "만일": 9758,
      "대학원": 9759,
      "##FA": 9760,
      "바른": 9761,
      "교육감": 9762,
      "중대": 9763,
      "보일": 9764,
      "##레이드": 9765,
      "1995": 9766,
      "남쪽": 9767,
      "공학": 9768,
      "하우스": 9769,
      "보급": 9770,
      "영향력": 9771,
      "식민": 9772,
      "189": 9773,
      "##머리": 9774,
      "동맹": 9775,
      "실내": 9776,
      "반도체": 9777,
      "테크": 9778,
      "대처": 9779,
      "오른쪽": 9780,
      "##th": 9781,
      "신학": 9782,
      "건조": 9783,
      "콘서트": 9784,
      "유학": 9785,
      "일어났": 9786,
      "간담회": 9787,
      "테러": 9788,
      "포럼": 9789,
      "김성": 9790,
      "맞이": 9791,
      "##에도": 9792,
      "선임": 9793,
      "일치": 9794,
      "대만": 9795,
      "##철수": 9796,
      "##도로": 9797,
      "널리": 9798,
      "조례": 9799,
      "개설": 9800,
      "해군": 9801,
      "62": 9802,
      "열차": 9803,
      "끝난": 9804,
      "디스": 9805,
      "어쩔": 9806,
      "변하": 9807,
      "유로": 9808,
      "노트": 9809,
      "애니": 9810,
      "수수료": 9811,
      "긴급": 9812,
      "위대": 9813,
      "아라": 9814,
      "부사": 9815,
      "데리": 9816,
      "돌리": 9817,
      "네이": 9818,
      "구성원": 9819,
      "부당": 9820,
      "제주도": 9821,
      "세웠": 9822,
      "끼리": 9823,
      "욕망": 9824,
      "더라고요": 9825,
      "정서": 9826,
      "마트": 9827,
      "증시": 9828,
      "권위": 9829,
      "68": 9830,
      "불렀": 9831,
      "지출": 9832,
      "수치": 9833,
      "연령": 9834,
      "이정": 9835,
      "냐는": 9836,
      "수집": 9837,
      "장식": 9838,
      "감염": 9839,
      "천연": 9840,
      "절감": 9841,
      "좌우": 9842,
      "영혼": 9843,
      "깨달": 9844,
      "뮤지컬": 9845,
      "창작": 9846,
      "개정안": 9847,
      "대폭": 9848,
      "##주시": 9849,
      "배려": 9850,
      "확신": 9851,
      "못한다": 9852,
      "문명": 9853,
      "간부": 9854,
      "폐기": 9855,
      "들어간": 9856,
      "침해": 9857,
      "노무현": 9858,
      "용인": 9859,
      "IC": 9860,
      "북부": 9861,
      "사안": 9862,
      "##려야": 9863,
      "병사": 9864,
      "이슬": 9865,
      "미세": 9866,
      "기름": 9867,
      "오바마": 9868,
      "수리": 9869,
      "응원": 9870,
      "군인": 9871,
      "마당": 9872,
      "추억": 9873,
      "평창": 9874,
      "죽이": 9875,
      "융합": 9876,
      "배당": 9877,
      "장난": 9878,
      "고도": 9879,
      "실무": 9880,
      "적어도": 9881,
      "담보": 9882,
      "외환": 9883,
      "임기": 9884,
      "촉진": 9885,
      "##스토": 9886,
      "근육": 9887,
      "유출": 9888,
      "휴가": 9889,
      "코치": 9890,
      "통치": 9891,
      "된다면": 9892,
      "##지사": 9893,
      "노사": 9894,
      "입법": 9895,
      "농협": 9896,
      "1970": 9897,
      "상임": 9898,
      "손가락": 9899,
      "진료": 9900,
      "무조건": 9901,
      "##마스": 9902,
      "보편": 9903,
      "들이": 9904,
      "만날": 9905,
      "느라": 9906,
      "1996": 9907,
      "호기": 9908,
      "몰아": 9909,
      "패배": 9910,
      "67": 9911,
      "공화국": 9912,
      "유아": 9913,
      "협조": 9914,
      "논쟁": 9915,
      "바람직": 9916,
      "뜨거운": 9917,
      "건데": 9918,
      "미만": 9919,
      "##러지": 9920,
      "캠페인": 9921,
      "벤처": 9922,
      "끊임없이": 9923,
      "스케": 9924,
      "이중": 9925,
      "##ab": 9926,
      "편리": 9927,
      "구상": 9928,
      "작곡": 9929,
      "화성": 9930,
      "정확히": 9931,
      "제자": 9932,
      "##문화": 9933,
      "고령": 9934,
      "체포": 9935,
      "##레기": 9936,
      "온도": 9937,
      "와인": 9938,
      "싸우": 9939,
      "눈치": 9940,
      "저장": 9941,
      "걸려": 9942,
      "무너": 9943,
      "##가스": 9944,
      "고유": 9945,
      "4000": 9946,
      "현안": 9947,
      "주간": 9948,
      "통증": 9949,
      "주최": 9950,
      "집계": 9951,
      "도구": 9952,
      "적응": 9953,
      "흡수": 9954,
      "블루": 9955,
      "선두": 9956,
      "곧바로": 9957,
      "군수": 9958,
      "답니다": 9959,
      "플랫": 9960,
      "어쨌든": 9961,
      "마이크": 9962,
      "십시오": 9963,
      "이스라": 9964,
      "수록": 9965,
      "지혜": 9966,
      "속하": 9967,
      "빼앗": 9968,
      "느낀": 9969,
      "선사": 9970,
      "직무": 9971,
      "단속": 9972,
      "는다면": 9973,
      "성명": 9974,
      "교실": 9975,
      "드러났": 9976,
      "금메달": 9977,
      "엘리": 9978,
      "농가": 9979,
      "그래요": 9980,
      "김종": 9981,
      "국내외": 9982,
      "당사자": 9983,
      "익숙": 9984,
      "소위": 9985,
      "키로": 9986,
      "대법원": 9987,
      "지리": 9988,
      "미니": 9989,
      "냐고": 9990,
      "그럼에도": 9991,
      "푸드": 9992,
      "그치": 9993,
      "양국": 9994,
      "리더십": 9995,
      "지진": 9996,
      "2019": 9997,
      "단장": 9998,
      "기후": 9999,
      "북쪽": 10000,
      "벌어지": 10001,
      "한마디": 10002,
      "분쟁": 10003,
      "아닙니다": 10004,
      "쉬운": 10005,
      "ㅠㅠ": 10006,
      "##바닥": 10007,
      "서부": 10008,
      "구제": 10009,
      "이스라엘": 10010,
      "##ED": 10011,
      "쓰레기": 10012,
      "라서": 10013,
      "없애": 10014,
      "안철수": 10015,
      "의해서": 10016,
      "연설": 10017,
      "구청": 10018,
      "유발": 10019,
      "항목": 10020,
      "##권자": 10021,
      "되돌": 10022,
      "태어나": 10023,
      "유행": 10024,
      "사로": 10025,
      "플러스": 10026,
      "부활": 10027,
      "##카오": 10028,
      "신선": 10029,
      "아웃": 10030,
      "비서": 10031,
      "열렸": 10032,
      "문화재": 10033,
      "찬성": 10034,
      "수주": 10035,
      "스카": 10036,
      "개통": 10037,
      "한때": 10038,
      "즉시": 10039,
      "##러진": 10040,
      "남기": 10041,
      "1994": 10042,
      "법무": 10043,
      "주자": 10044,
      "고생": 10045,
      "중공업": 10046,
      "고발": 10047,
      "깜짝": 10048,
      "초과": 10049,
      "적당": 10050,
      "가계": 10051,
      "이주": 10052,
      "지켜보": 10053,
      "자본주의": 10054,
      "올린": 10055,
      "신기": 10056,
      "##남도": 10057,
      "74": 10058,
      "결의": 10059,
      "오직": 10060,
      "선진국": 10061,
      "kr": 10062,
      "나눔": 10063,
      "평양": 10064,
      "상가": 10065,
      "취급": 10066,
      "비디오": 10067,
      "감성": 10068,
      "스파": 10069,
      "복원": 10070,
      "800": 10071,
      "손님": 10072,
      "수백": 10073,
      "구현": 10074,
      "청약": 10075,
      "파업": 10076,
      "집권": 10077,
      "대강": 10078,
      "종료": 10079,
      "도대": 10080,
      "CJ": 10081,
      "황금": 10082,
      "71": 10083,
      "73": 10084,
      "내린": 10085,
      "전후": 10086,
      "##건설": 10087,
      "##ia": 10088,
      "훼손": 10089,
      "상실": 10090,
      "SNS": 10091,
      "취약": 10092,
      "라면서": 10093,
      "국정원": 10094,
      "기쁨": 10095,
      "일시": 10096,
      "##단지": 10097,
      "이어졌": 10098,
      "해명": 10099,
      "거치": 10100,
      "불가피": 10101,
      "강점": 10102,
      "구미": 10103,
      "컨설": 10104,
      "선보이": 10105,
      "120": 10106,
      "몇몇": 10107,
      "살짝": 10108,
      "##ea": 10109,
      "일자": 10110,
      "이혼": 10111,
      "인문": 10112,
      "77": 10113,
      "도대체": 10114,
      "뒤집": 10115,
      "입지": 10116,
      "그렇지만": 10117,
      "동력": 10118,
      "변수": 10119,
      "to": 10120,
      "다름": 10121,
      "욕구": 10122,
      "경찰서": 10123,
      "고맙": 10124,
      "재능": 10125,
      "##ew": 10126,
      "##영상": 10127,
      "확실히": 10128,
      "재건": 10129,
      "교황": 10130,
      "신속": 10131,
      "어려워": 10132,
      "음성": 10133,
      "민원": 10134,
      "결심": 10135,
      "자문": 10136,
      "신부": 10137,
      "주행": 10138,
      "가볍": 10139,
      "소프트웨어": 10140,
      "뚜렷": 10141,
      "메이저": 10142,
      "가공": 10143,
      "조달": 10144,
      "가상": 10145,
      "열린다": 10146,
      "입증": 10147,
      "##나이": 10148,
      "최소한": 10149,
      "스크": 10150,
      "밀려": 10151,
      "박람": 10152,
      "젊은이": 10153,
      "스키": 10154,
      "명품": 10155,
      "##힌다": 10156,
      "비정": 10157,
      "든다": 10158,
      "사로잡": 10159,
      "##스탄": 10160,
      "후기": 10161,
      "급증": 10162,
      "공헌": 10163,
      "알아보": 10164,
      "SBS": 10165,
      "트렌": 10166,
      "과일": 10167,
      "출산": 10168,
      "강연": 10169,
      "참조": 10170,
      "선도": 10171,
      "동남": 10172,
      "섬유": 10173,
      "시범": 10174,
      "어두": 10175,
      "줄어": 10176,
      "계시": 10177,
      "여서": 10178,
      "##낸다": 10179,
      "현행": 10180,
      "추석": 10181,
      "파워": 10182,
      "##우드": 10183,
      "서명": 10184,
      "때로": 10185,
      "민중": 10186,
      "장르": 10187,
      "재생": 10188,
      "과도": 10189,
      "여의": 10190,
      "종종": 10191,
      "멈추": 10192,
      "소스": 10193,
      "한참": 10194,
      "상무": 10195,
      "영웅": 10196,
      "아메": 10197,
      "##다리": 10198,
      "급격": 10199,
      "트위": 10200,
      "그대": 10201,
      "소형": 10202,
      "바위": 10203,
      "김해": 10204,
      "들어왔": 10205,
      "고양이": 10206,
      "아시": 10207,
      "##거렸": 10208,
      "나타난": 10209,
      "에겐": 10210,
      "##래도": 10211,
      "한지": 10212,
      "폐쇄": 10213,
      "일방": 10214,
      "아마도": 10215,
      "싱글": 10216,
      "입시": 10217,
      "원정": 10218,
      "한번": 10219,
      "GS": 10220,
      "76": 10221,
      "##생활": 10222,
      "전주": 10223,
      "장학": 10224,
      "기금": 10225,
      "조지": 10226,
      "극단": 10227,
      "학회": 10228,
      "시계": 10229,
      "이민": 10230,
      "사회주의": 10231,
      "지냈": 10232,
      "테이블": 10233,
      "농구": 10234,
      "남겨": 10235,
      "휴식": 10236,
      "빠진": 10237,
      "모색": 10238,
      "##온다": 10239,
      "야권": 10240,
      "합류": 10241,
      "김대": 10242,
      "##시코": 10243,
      "칭찬": 10244,
      "국방부": 10245,
      "거짓말": 10246,
      "로스": 10247,
      "##ㅋㅋㅋㅋ": 10248,
      "여섯": 10249,
      "최우": 10250,
      "의자": 10251,
      "청문": 10252,
      "아닐까": 10253,
      "붕괴": 10254,
      "##시다": 10255,
      "##정부": 10256,
      "비행기": 10257,
      "69": 10258,
      "거절": 10259,
      "법칙": 10260,
      "아저": 10261,
      "입구": 10262,
      "용역": 10263,
      "존중": 10264,
      "음료": 10265,
      "리라": 10266,
      "천천": 10267,
      "코드": 10268,
      "가방": 10269,
      "진영": 10270,
      "더군": 10271,
      "주기": 10272,
      "##iv": 10273,
      "어울리": 10274,
      "88": 10275,
      "중반": 10276,
      "침대": 10277,
      "정성": 10278,
      "진리": 10279,
      "김태": 10280,
      "담긴": 10281,
      "연봉": 10282,
      "마사": 10283,
      "대륙": 10284,
      "##항공": 10285,
      "천천히": 10286,
      "이용자": 10287,
      "좋아하": 10288,
      "##ion": 10289,
      "세운": 10290,
      "임직원": 10291,
      "수지": 10292,
      "복수": 10293,
      "믿음": 10294,
      "붙여": 10295,
      "진주": 10296,
      "##브리": 10297,
      "품목": 10298,
      "아저씨": 10299,
      "셋째": 10300,
      "흔적": 10301,
      "가질": 10302,
      "필리": 10303,
      "동영상": 10304,
      "한가": 10305,
      "영입": 10306,
      "가만": 10307,
      "오스트": 10308,
      "경매": 10309,
      "기상": 10310,
      "지연": 10311,
      "##스턴": 10312,
      "고마": 10313,
      "통보": 10314,
      "미친": 10315,
      "박지": 10316,
      "아카": 10317,
      "6000": 10318,
      "돌아왔": 10319,
      "이리": 10320,
      "입찰": 10321,
      "그쳤": 10322,
      "포르": 10323,
      "연료": 10324,
      "##그룹": 10325,
      "선전": 10326,
      "배상": 10327,
      "각국": 10328,
      "굳이": 10329,
      "신중": 10330,
      "cm": 10331,
      "인연": 10332,
      "기운": 10333,
      "구도": 10334,
      "플라": 10335,
      "유산": 10336,
      "##ard": 10337,
      "산하": 10338,
      "한쪽": 10339,
      "##어버": 10340,
      "타인": 10341,
      "물류": 10342,
      "데려": 10343,
      "마법": 10344,
      "어쩌면": 10345,
      "전해졌": 10346,
      "노후": 10347,
      "아무래도": 10348,
      "구글": 10349,
      "##메이션": 10350,
      "대개": 10351,
      "진지": 10352,
      "충족": 10353,
      "양산": 10354,
      "부딪": 10355,
      "타당": 10356,
      "축하": 10357,
      "미술관": 10358,
      "빌려": 10359,
      "장수": 10360,
      "아가": 10361,
      "떠오르": 10362,
      "저기": 10363,
      "너희": 10364,
      "8000": 10365,
      "국어": 10366,
      "##워하": 10367,
      "소외": 10368,
      "변신": 10369,
      "심하": 10370,
      "시달": 10371,
      "본래": 10372,
      "조약": 10373,
      "예금": 10374,
      "##나마": 10375,
      "순서": 10376,
      "차관": 10377,
      "임무": 10378,
      "양상": 10379,
      "당부": 10380,
      "올바": 10381,
      "동작": 10382,
      "성립": 10383,
      "청사": 10384,
      "자국": 10385,
      "78": 10386,
      "요건": 10387,
      "길이": 10388,
      "계좌": 10389,
      "1992": 10390,
      "무사": 10391,
      "갈수록": 10392,
      "안팎": 10393,
      "구원": 10394,
      "가르치": 10395,
      "텔레콤": 10396,
      "구별": 10397,
      "현황": 10398,
      "트위터": 10399,
      "지도부": 10400,
      "##트리": 10401,
      "징역": 10402,
      "금속": 10403,
      "베스트": 10404,
      "진학": 10405,
      "케이블": 10406,
      "화장실": 10407,
      "##덜란드": 10408,
      "쓰이": 10409,
      "시킨다": 10410,
      "들어와": 10411,
      "블록": 10412,
      "커뮤니케이션": 10413,
      "둘러싼": 10414,
      "승진": 10415,
      "공인": 10416,
      "##천시": 10417,
      "메르": 10418,
      "동해": 10419,
      "비정규": 10420,
      "새끼": 10421,
      "화물": 10422,
      "일기": 10423,
      "네덜란드": 10424,
      "조항": 10425,
      "급여": 10426,
      "해안": 10427,
      "점포": 10428,
      "압력": 10429,
      "부작": 10430,
      "엑스": 10431,
      "편하": 10432,
      "700": 10433,
      "퇴직": 10434,
      "받아들여": 10435,
      "장악": 10436,
      "##ame": 10437,
      "비정규직": 10438,
      "대행": 10439,
      "채무": 10440,
      "원주": 10441,
      "기법": 10442,
      "태어난": 10443,
      "박람회": 10444,
      "김정은": 10445,
      "맞서": 10446,
      "탄핵": 10447,
      "우울": 10448,
      "##디션": 10449,
      "골목": 10450,
      "고리": 10451,
      "마크": 10452,
      "색깔": 10453,
      "관료": 10454,
      "모니": 10455,
      "##ist": 10456,
      "쳐다보": 10457,
      "태평": 10458,
      "돼요": 10459,
      "높여": 10460,
      "공작": 10461,
      "간접": 10462,
      "무척": 10463,
      "무장": 10464,
      "예선": 10465,
      "마디": 10466,
      "워낙": 10467,
      "잡지": 10468,
      "출근": 10469,
      "치르": 10470,
      "1960": 10471,
      "중동": 10472,
      "지나가": 10473,
      "영화제": 10474,
      "이닝": 10475,
      "엄격": 10476,
      "##라리": 10477,
      "비로": 10478,
      "평범": 10479,
      "도달": 10480,
      "1993": 10481,
      "##퍼스": 10482,
      "파일": 10483,
      "환영": 10484,
      "무용": 10485,
      "육군": 10486,
      "필자": 10487,
      "전당": 10488,
      "향한": 10489,
      "주차장": 10490,
      "경영자": 10491,
      "발전소": 10492,
      "을까요": 10493,
      "대목": 10494,
      "왕국": 10495,
      "안심": 10496,
      "주부": 10497,
      "재배": 10498,
      "이걸": 10499,
      "오프": 10500,
      "##북도": 10501,
      "영장": 10502,
      "공략": 10503,
      "도내": 10504,
      "##이브": 10505,
      "98": 10506,
      "##리스트": 10507,
      "담겨": 10508,
      "일관": 10509,
      "유동": 10510,
      "챙겨": 10511,
      "유력": 10512,
      "이슬람": 10513,
      "명단": 10514,
      "레드": 10515,
      "일원": 10516,
      "보여준다": 10517,
      "구경": 10518,
      "저런": 10519,
      "앞장": 10520,
      "##TV": 10521,
      "푸른": 10522,
      "가벼": 10523,
      "##ell": 10524,
      "철강": 10525,
      "##증권": 10526,
      "파티": 10527,
      "##ep": 10528,
      "##어진다": 10529,
      "멕시코": 10530,
      "도중": 10531,
      "실정": 10532,
      "방사": 10533,
      "넘어가": 10534,
      "베이징": 10535,
      "참가자": 10536,
      "중도": 10537,
      "02": 10538,
      "패턴": 10539,
      "주석": 10540,
      "세부": 10541,
      "영남": 10542,
      "비타": 10543,
      "##50": 10544,
      "깨닫": 10545,
      "떠났": 10546,
      "##산업": 10547,
      "매출액": 10548,
      "강요": 10549,
      "##회의": 10550,
      "가사": 10551,
      "드릴": 10552,
      "마친": 10553,
      "진흥": 10554,
      "후배": 10555,
      "유치원": 10556,
      "격차": 10557,
      "관념": 10558,
      "귀족": 10559,
      "그릇": 10560,
      "체육관": 10561,
      "학술": 10562,
      "종시": 10563,
      "휴대폰": 10564,
      "동쪽": 10565,
      "##시장": 10566,
      "##디아": 10567,
      "재개": 10568,
      "벌였": 10569,
      "전시회": 10570,
      "교육부": 10571,
      "체크": 10572,
      "스튜": 10573,
      "로드": 10574,
      "용품": 10575,
      "입술": 10576,
      "충실": 10577,
      "섭취": 10578,
      "AI": 10579,
      "188": 10580,
      "고구려": 10581,
      "##EC": 10582,
      "될지": 10583,
      "환상": 10584,
      "갤럭": 10585,
      "클래식": 10586,
      "붙잡": 10587,
      "##ver": 10588,
      "해고": 10589,
      "보험료": 10590,
      "갤럭시": 10591,
      "초래": 10592,
      "민감": 10593,
      "오해": 10594,
      "탈출": 10595,
      "동화": 10596,
      "재벌": 10597,
      "공제": 10598,
      "##스키": 10599,
      "##ff": 10600,
      "##ill": 10601,
      "베르": 10602,
      "##덩이": 10603,
      "상생": 10604,
      "이룬": 10605,
      "심한": 10606,
      "으려고": 10607,
      "##30": 10608,
      "하여금": 10609,
      "과세": 10610,
      "쏟아": 10611,
      "여지": 10612,
      "가요": 10613,
      "파트너": 10614,
      "치즈": 10615,
      "총괄": 10616,
      "##운동": 10617,
      "계단": 10618,
      "신인": 10619,
      "십니까": 10620,
      "중구": 10621,
      "박스": 10622,
      "전설": 10623,
      "개척": 10624,
      "표면": 10625,
      "##하여": 10626,
      "##PG": 10627,
      "손상": 10628,
      "테스트": 10629,
      "82": 10630,
      "귀국": 10631,
      "비평": 10632,
      "KIA": 10633,
      "소요": 10634,
      "체력": 10635,
      "탄소": 10636,
      "향하": 10637,
      "학위": 10638,
      "유전자": 10639,
      "침묵": 10640,
      "대대": 10641,
      "줄여": 10642,
      "넘치": 10643,
      "부각": 10644,
      "마땅": 10645,
      "애니메이션": 10646,
      "180": 10647,
      "정수": 10648,
      "선교": 10649,
      "스웨": 10650,
      "셔서": 10651,
      "관세": 10652,
      "##레인": 10653,
      "메모": 10654,
      "나설": 10655,
      "충북": 10656,
      "바깥": 10657,
      "날아": 10658,
      "81": 10659,
      "##IS": 10660,
      "우유": 10661,
      "서쪽": 10662,
      "살해": 10663,
      "##tic": 10664,
      "7000": 10665,
      "뷰티": 10666,
      "틀림": 10667,
      "두드": 10668,
      "사드": 10669,
      "유권자": 10670,
      "어리": 10671,
      "신입": 10672,
      "화이트": 10673,
      "이른다": 10674,
      "홀로": 10675,
      "살려": 10676,
      "기원전": 10677,
      "##총장": 10678,
      "해상": 10679,
      "이젠": 10680,
      "계절": 10681,
      "1991": 10682,
      "개헌": 10683,
      "정작": 10684,
      "명성": 10685,
      "다스": 10686,
      "대거": 10687,
      "##CC": 10688,
      "작동": 10689,
      "##싱턴": 10690,
      "st": 10691,
      "불행": 10692,
      "상사": 10693,
      "PD": 10694,
      "랜드": 10695,
      "카카오": 10696,
      "적발": 10697,
      "86": 10698,
      "영광": 10699,
      "엔터": 10700,
      "전선": 10701,
      "##게요": 10702,
      "공중": 10703,
      "확충": 10704,
      "##피아": 10705,
      "합동": 10706,
      "##들이": 10707,
      "위상": 10708,
      "먹스": 10709,
      "전파": 10710,
      "한층": 10711,
      "점령": 10712,
      "온갖": 10713,
      "실망": 10714,
      "##컨대": 10715,
      "의뢰": 10716,
      "조합원": 10717,
      "반성": 10718,
      "영토": 10719,
      "##거래": 10720,
      "역전": 10721,
      "임신": 10722,
      "확률": 10723,
[...]
